{"version":"1.0","truncation":null,"padding":null,"added_tokens":[{"id":0,"special":true,"content":"<|endoftext|>","single_word":false,"lstrip":false,"rstrip":false,"normalized":false},{"id":1,"special":true,"content":"<unk>","single_word":false,"lstrip":false,"rstrip":false,"normalized":false}],"normalizer":{"type":"Sequence","normalizers":[{"type":"NFD"},{"type":"Lowercase"},{"type":"StripAccents"}]},"pre_tokenizer":{"type":"ByteLevel","add_prefix_space":false,"trim_offsets":true},"post_processor":{"type":"TemplateProcessing","single":[{"Sequence":{"id":"A","type_id":0}},{"SpecialToken":{"id":"<|endoftext|>","type_id":0}}],"pair":[{"Sequence":{"id":"A","type_id":0}},{"Sequence":{"id":"B","type_id":1}}],"special_tokens":{"<|endoftext|>":{"id":"<|endoftext|>","ids":[0],"tokens":["<|endoftext|>"]}}},"decoder":{"type":"ByteLevel","add_prefix_space":true,"trim_offsets":true},"model":{"type":"BPE","dropout":null,"unk_token":null,"continuing_subword_prefix":null,"end_of_word_suffix":null,"fuse_unk":false,"vocab":{"<|endoftext|>":0,"<unk>":1,"!":2,"\"":3,"#":4,"$":5,"%":6,"&":7,"'":8,"(":9,")":10,"*":11,"+":12,",":13,"-":14,".":15,"/":16,"0":17,"1":18,"2":19,"3":20,"4":21,"5":22,"6":23,"7":24,"8":25,"9":26,":":27,";":28,"<":29,"=":30,">":31,"?":32,"@":33,"A":34,"B":35,"C":36,"D":37,"E":38,"F":39,"G":40,"H":41,"I":42,"J":43,"K":44,"L":45,"M":46,"N":47,"O":48,"P":49,"Q":50,"R":51,"S":52,"T":53,"U":54,"V":55,"W":56,"X":57,"Y":58,"Z":59,"[":60,"\\":61,"]":62,"^":63,"_":64,"`":65,"a":66,"b":67,"c":68,"d":69,"e":70,"f":71,"g":72,"h":73,"i":74,"j":75,"k":76,"l":77,"m":78,"n":79,"o":80,"p":81,"q":82,"r":83,"s":84,"t":85,"u":86,"v":87,"w":88,"x":89,"y":90,"z":91,"{":92,"|":93,"}":94,"~":95,"¡":96,"¢":97,"£":98,"¤":99,"¥":100,"¦":101,"§":102,"¨":103,"©":104,"ª":105,"«":106,"¬":107,"®":108,"¯":109,"°":110,"±":111,"²":112,"³":113,"´":114,"µ":115,"¶":116,"·":117,"¸":118,"¹":119,"º":120,"»":121,"¼":122,"½":123,"¾":124,"¿":125,"À":126,"Á":127,"Â":128,"Ã":129,"Ä":130,"Å":131,"Æ":132,"Ç":133,"È":134,"É":135,"Ê":136,"Ë":137,"Ì":138,"Í":139,"Î":140,"Ï":141,"Ð":142,"Ñ":143,"Ò":144,"Ó":145,"Ô":146,"Õ":147,"Ö":148,"×":149,"Ø":150,"Ù":151,"Ú":152,"Û":153,"Ü":154,"Ý":155,"Þ":156,"ß":157,"à":158,"á":159,"â":160,"ã":161,"ä":162,"å":163,"æ":164,"ç":165,"è":166,"é":167,"ê":168,"ë":169,"ì":170,"í":171,"î":172,"ï":173,"ð":174,"ñ":175,"ò":176,"ó":177,"ô":178,"õ":179,"ö":180,"÷":181,"ø":182,"ù":183,"ú":184,"û":185,"ü":186,"ý":187,"þ":188,"ÿ":189,"Ā":190,"ā":191,"Ă":192,"ă":193,"Ą":194,"ą":195,"Ć":196,"ć":197,"Ĉ":198,"ĉ":199,"Ċ":200,"ċ":201,"Č":202,"č":203,"Ď":204,"ď":205,"Đ":206,"đ":207,"Ē":208,"ē":209,"Ĕ":210,"ĕ":211,"Ė":212,"ė":213,"Ę":214,"ę":215,"Ě":216,"ě":217,"Ĝ":218,"ĝ":219,"Ğ":220,"ğ":221,"Ġ":222,"ġ":223,"Ģ":224,"ģ":225,"Ĥ":226,"ĥ":227,"Ħ":228,"ħ":229,"Ĩ":230,"ĩ":231,"Ī":232,"ī":233,"Ĭ":234,"ĭ":235,"Į":236,"į":237,"İ":238,"ı":239,"Ĳ":240,"ĳ":241,"Ĵ":242,"ĵ":243,"Ķ":244,"ķ":245,"ĸ":246,"Ĺ":247,"ĺ":248,"Ļ":249,"ļ":250,"Ľ":251,"ľ":252,"Ŀ":253,"ŀ":254,"Ł":255,"ł":256,"Ń":257,"Ġt":258,"Ġa":259,"he":260,"in":261,"Ġthe":262,"er":263,"Ġo":264,"Ġs":265,"Ġ,":266,"re":267,"Ġw":268,"on":269,"Ġc":270,"ed":271,"un":272,"Ġb":273,"Ġf":274,"Ġ.":275,"at":276,"en":277,"it":278,"Ġin":279,"an":280,"or":281,"Ġan":282,"Ġp":283,"is":284,"Ġm":285,"Ġof":286,"es":287,"ar":288,"unk":289,"Ġ<":290,"al":291,"Ġand":292,"Ġd":293,"ing":294,"as":295,"Ġh":296,"Ġto":297,"ro":298,"ic":299,"Ġl":300,"ĠĊ":301,"ion":302,"Ġn":303,"Ġre":304,"Ġth":305,"Ġ=":306,"le":307,"Ġ\"":308,"Ġg":309,"Ġe":310,"ent":311,"ou":312,"Ġ1":313,"il":314,"st":315,"Ġ@":316,"om":317,"am":318,"Ġon":319,"Ġbe":320,"ly":321,"Ġwas":322,"ad":323,"ac":324,"Ġst":325,"ur":326,"ve":327,"Ġhe":328,"Ġfor":329,"Ġ'":330,"Ġas":331,"im":332,"ir":333,"id":334,"-@":335,"Ġ@-@":336,"ol":337,"ter":338,"ver":339,"ig":340,"ct":341,"us":342,"th":343,"ith":344,"Ġal":345,"ow":346,"Ġ2":347,"ay":348,"Ġwith":349,"el":350,"Ġthat":351,"ut":352,"Ġr":353,"Ġis":354,"Ġit":355,"ce":356,"ot":357,"ation":358,"Ġse":359,"Ġwh":360,"Ġcon":361,"Ġby":362,"Ġj":363,"Ġat":364,"Ġde":365,"ch":366,"Ġ)":367,"Ġ(":368,"et":369,"ul":370,"rom":371,"Ġch":372,"Ġk":373,"Ġ19":374,"and":375,"ain":376,"Ġv":377,"Ġhis":378,"Ġcom":379,"her":380,"ag":381,"est":382,"os":383,"00":384,"ri":385,"um":386,"em":387,"Ġfrom":388,"Ġmo":389,"ers":390,"Ġpro":391,"und":392,"if":393,"Ġsu":394,"pe":395,"ere":396,"Ġy":397,"ies":398,"Ġne":399,"od":400,"res":401,"ld":402,"ist":403,"ate":404,"ort":405,"ill":406,"Ġwere":407,"Ġor":408,"iv":409,"ap":410,"Ġpl":411,"Ġsh":412,"Ġro":413,"op":414,"igh":415,"ong":416,"ich":417,"art":418,"all":419,"Ġex":420,"ard":421,"ak":422,"se":423,"ive":424,"Ġle":425,"ber":426,"ame":427,"ab":428,"gh":429,"Ġare":430,"ud":431,"ant":432,"qu":433,"ated":434,"Ġun":435,"ity":436,"red":437,"Ġâ":438,"Ġen":439,"Ġtr":440,"Ġar":441,"ess":442,"Ġhad":443,"ĠâĢ":444,"oc":445,"ack":446,"Ġwhich":447,"ment":448,"ie":449,"up":450,"Ġnot":451,"Ġco":452,"ave":453,"ip":454,"rit":455,"ast":456,"ge":457,"Ġaf":458,"ord":459,"pt":460,"ian":461,"Ġwhe":462,"ally":463,"our":464,"ine":465,"ther":466,"Ġcomp":467,"av":468,"ight":469,"Ġ3":470,"ia":471,"cl":472,"Ġthis":473,"ish":474,"ary":475,"Ġfir":476,"Ġus":477,"Ġbo":478,"Ġ200":479,"Ġcl":480,"ust":481,"Ġbut":482,"cc":483,"Ġwor":484,"Ġad":485,"Ġap":486,"Ġtheir":487,"Ġtw":488,"Ġfirst":489,"Ġher":490,"ell":491,"Ġ;":492,"Ġcont":493,"Ġsc":494,"so":495,"Ġits":496,"ide":497,"Ġint":498,"ction":499,"Ġab":500,"end":501,"Ġafter":502,"Ġman":503,"ould":504,"ure":505,"ous":506,"ĠâĢĵ":507,"Ġone":508,"ore":509,"Ġthey":510,"Ġi":511,"ical":512,"Ġall":513,"Ġalso":514,"Ġ20":515,"Ġ:":516,"ial":517,"hed":518,"ome":519,"per":520,"ra":521,"ition":522,"ub":523,"Ġam":524,"Ġrec":525,"Ġfe":526,"Ġper":527,"port":528,"ign":529,"ue":530,"out":531,"ater":532,"Ġte":533,"Ġtim":534,"Ġtwo":535,"Ġnew":536,"Ġcomm":537,"og":538,"Ġhave":539,"Ġshe":540,"ok":541,"age":542,"pl":543,"Ġmar":544,"ire":545,"Ġno":546,"Ġres":547,"ear":548,"Ġhas":549,"Ġdes":550,"ree":551,"orm":552,"ass":553,"unt":554,"ru":555,"Ġser":556,"own":557,"Ġplay":558,"Ġbeen":559,"Ġpo":560,"Ġwho":561,"Ġbec":562,"Ġ4":563,"Ġpart":564,"Ġ18":565,"Ġag":566,".@":567,"Ġ@.@":568,"Ġother":569,"ect":570,"Ġsp":571,"du":572,"Ġ5":573,"Ġme":574,"Ġgo":575,"ond":576,"land":577,"Ġyear":578,"uring":579,"ence":580,"ult":581,"ough":582,"are":583,"ile":584,"ugh":585,"ory":586,"ance":587,"ry":588,"Ġup":589,"Ġdis":590,"ved":591,"Ġev":592,"Ġover":593,"ans":594,"clud":595,"Ġoff":596,"Ġim":597,"Ġ201":598,"Ġfin":599,"ade":600,"wn":601,"ations":602,"Ġwe":603,"ach":604,"ff":605,"act":606,"Ġfo":607,"ke":608,"ric":609,"Ġpre":610,"low":611,"Ġatt":612,",@":613,"Ġ@,@":614,"Ġcol":615,"Ġduring":616,"te":617,"Ġout":618,"Ġwhen":619,"Ġcan":620,"Ġinclud":621,"Ġcent":622,"ang":623,"ions":624,"urn":625,"ite":626,"Ġtime":627,"Ġso":628,"ice":629,"Ġinter":630,"ace":631,"Ġear":632,"iz":633,"Ġsong":634,"vel":635,"ib":636,"ress":637,"Ġind":638,"ren":639,"Ġmore":640,"Ġinto":641,"Ġspe":642,"Ġsec":643,"iver":644,"ced":645,"we":646,"Ġlo":647,"Ġwould":648,"Ġform":649,"ted":650,"ward":651,"ces":652,"Ġbr":653,"ason":654,"ail":655,"ks":656,"rough":657,"one":658,"ts":659,"Ġchar":660,"Ġhim":661,"ited":662,"Ġmost":663,"amp":664,"under":665,"Ġjo":666,"ied":667,"Ġfl":668,"ased":669,"Ġ6":670,"Ġbet":671,"Ġpe":672,"ens":673,"ose":674,"ase":675,"rib":676,"Ġgame":677,"Ġmus":678,"Ġgr":679,"Ġsome":680,"ild":681,"Ġbl":682,"Ġkn":683,"Ġsou":684,"ix":685,"ings":686,"Ġwhile":687,"Ġthem":688,"der":689,"round":690,"Ġ7":691,"man":692,"Ġfol":693,"Ġmay":694,"Ġass":695,"les":696,"Ġrem":697,"able":698,"ious":699,"Ġonly":700,"ents":701,"Ġacc":702,"ake":703,"Ġthere":704,"Ġwar":705,"way":706,"Ġop":707,"Ġfil":708,"ates":709,"Ġhow":710,"Ġrecord":711,"als":712,"Ġreg":713,"Ġeng":714,"ubl":715,"iss":716,"form":717,"Ġthree":718,"Ġver":719,"fer":720,"Ġgen":721,"gan":722,"Ġnor":723,"Ġqu":724,"ath":725,"aus":726,"Ġlater":727,"Ġpar":728,"Ġunder":729,"Ġpr":730,"Ġrel":731,"Ġabout":732,"Ġcons":733,"ors":734,"Ġfilm":735,"Ġthrough":736,"Ġcar":737,"Ġfr":738,"ween":739,"Ġbetween":740,"Ġ199":741,"Ġact":742,"Ġseason":743,"Ġagain":744,"reat":745,"Ġwork":746,"Ġsa":747,"Ġmin":748,"Ġ9":749,"Ġfollow":750,"Ġ8":751,"Ġthan":752,"Ġac":753,"Ġli":754,"Ġprodu":755,"ters":756,"Ġwrit":757,"eric":758,"ug":759,"Ġday":760,"att":761,"old":762,"Ġend":763,"Ġnum":764,"ral":765,"Ġhigh":766,"Ġrele":767,"Ġem":768,"ational":769,"Ġspec":770,"Ġbu":771,"Ġwin":772,"ular":773,"Ġmon":774,"fore":775,"Ġlar":776,"Ġsecond":777,"ict":778,"Ġpos":779,"Ġsy":780,"iew":781,"ames":782,"Ġ00":783,"ision":784,"Ġdo":785,"Ġnorth":786,"ft":787,"Ġma":788,"Ġdef":789,"Ġwhere":790,"Ġret":791,"Ġfour":792,"hip":793,"ished":794,"Ġmade":795,"Ġalb":796,"Ġgro":797,"Ġpubl":798,"ning":799,"Ġpres":800,"Ġcity":801,"rop":802,"cted":803,"Ġbro":804,"Ġworld":805,"Ġameric":806,"Ġsuch":807,"ick":808,"ury":809,"Ġsub":810,"Ġinc":811,"ck":812,"Ġloc":813,"Ġalbum":814,"ll":815,"Ġbefore":816,"ons":817,"ered":818,"Ġgu":819,"Ġsouth":820,"Ġsup":821,"Ġent":822,"ss":823,"ood":824,"Ġapp":825,"Ġele":826,"Ġused":827,"olog":828,"Ġseries":829,"Ġcall":830,"Ġsur":831,"Ġcap":832,"Ġpol":833,"Ġdep":834,"Ġep":835,"Ġappe":836,"Ġsever":837,"ific":838,"tern":839,"ual":840,"Ġhowe":841,"Ġbeing":842,"Ġyears":843,"Ġsing":844,"Ġla":845,"Ġboth":846,"Ġmany":847,"Ġ000":848,"Ġthese":849,"Ġgener":850,"ily":851,"Ġcount":852,"Ġhist":853,"Ġstud":854,"Ġph":855,"Ġhowever":856,"ane":857,"ating":858,"Ġdesc":859,"Ġfound":860,"Ġback":861,"Ġed":862,"Ġ0":863,"Ġsim":864,"Ġair":865,"iel":866,"ife":867,"int":868,"Ġrev":869,"Ġsm":870,"Ġadd":871,"Ġdire":872,"Ġwell":873,"ics":874,"Ġrece":875,"hes":876,"Ġwill":877,"Ġnumber":878,"ute":879,"Ġlong":880,"ird":881,"Ġdec":882,"Ġlike":883,"ep":884,"ained":885,"Ġ10":886,"other":887,"Ġthen":888,"orn":889,"Ġpop":890,"ause":891,"igin":892,"ten":893,"Ġstar":894,"Ġrep":895,"Ġtrans":896,"ince":897,"mber":898,"Ġorigin":899,"Ġearly":900,"Ġbatt":901,"velop":902,"Ġmusic":903,"Ġstate":904,"Ġseveral":905,"Ġarm":906,"Ġepis":907,"ities":908,"ived":909,"Ġart":910,"Ġperform":911,"Ġbrit":912,"Ġ12":913,"Ġcharac":914,"Ġincluding":915,"Ġcre":916,"Ġagainst":917,"Ġter":918,"Ġset":919,"Ġepisod":920,"ative":921,"Ġmain":922,"ale":923,"Ġsch":924,"ph":925,"Ġ/":926,"Ġmill":927,"Ġknown":928,"Ġdevelop":929,"Ġbecame":930,"Ġz":931,"Ġteam":932,"Ġinv":933,"ject":934,"hn":935,"Ġinst":936,"ĠâĢĶ":937,"ember":938,"ised":939,"Ġport":940,"li":941,"Ġ198":942,"ines":943,"Ġcrit":944,"urch":945,"its":946,"Ġunited":947,"Ġ16":948,"ert":949,"Ġoper":950,"ident":951,"Ġshow":952,"oun":953,"though":954,"Ġalthough":955,"Ġest":956,"ank":957,"Ġdiv":958,"ise":959,"son":960,"io":961,"ton":962,"ures":963,"Ġcentury":964,"ather":965,"Ġmil":966,"Ġob":967,"Ġinf":968,"Ġold":969,"Ġjohn":970,"Ġu":971,"Ġcro":972,"Ġconst":973,"iet":974,"Ġlead":975,"ments":976,"Ġfollowing":977,"air":978,"Ġcompan":979,"Ġthough":980,"Ġdist":981,"Ġsign":982,"Ġchr":983,"Ġland":984,"ield":985,"Ġcontin":986,"Ġ194":987,"Ġcare":988,"vern":989,"Ġrun":990,"ool":991,"pos":992,"led":993,"Ġship":994,"Ġcomple":995,"Ġopen":996,"Ġ17":997,"elf":998,"ared":999,"Ġbegan":1000,"Ġ196":1001,"Ġnear":1002,"ful":1003,"ne":1004,"Ġmet":1005,"Ġdown":1006,"Ġbel":1007,"Ġalong":1008,"Ġdif":1009,"ped":1010,"Ġ11":1011,"Ġ15":1012,"Ġvar":1013,"Ġ197":1014,"Ġbecause":1015,"Ġgovern":1016,"ork":1017,"ually":1018,"ann":1019,"Ġcould":1020,"oy":1021,"ired":1022,"Ġfam":1023,"Ġstr":1024,"Ġext":1025,"Ġdescrib":1026,"ower":1027,"Ġever":1028,"Ġcalled":1029,"Ġpeop":1030,"Ġlarge":1031,"Ġepisode":1032,"Ġunt":1033,"Ġdid":1034,"Ġprov":1035,"Ġsix":1036,"ains":1037,"Ġking":1038,"ued":1039,"une":1040,"Ġmat":1041,"emb":1042,"Ġuntil":1043,"Ġfeat":1044,"Ġsaid":1045,"uch":1046,"Ġke":1047,"Ġarea":1048,"Ġdisc":1049,"ccess":1050,"Ġamerican":1051,"Ġstates":1052,"Ġpers":1053,"ley":1054,"Ġdam":1055,"ined":1056,"Ġchurch":1057,"Ġdesign":1058,"Ġpeople":1059,"Ġgroup":1060,"Ġprev":1061,"ins":1062,"aking":1063,"Ġstart":1064,"Ġaust":1065,"Ġger":1066,"uc":1067,"Ġyou":1068,"Ġsince":1069,"gest":1070,"Ġreturn":1071,"Ġbar":1072,"Ġbritish":1073,"Ġwest":1074,"Ġins":1075,"ost":1076,"Ġany":1077,"Ġeach":1078,"Ġsame":1079,"Ġreleased":1080,"Ġmaj":1081,"Ġriver":1082,"Ġoffic":1083,"Ġnational":1084,"ty":1085,"Ġaround":1086,"Ġown":1087,"Ġadv":1088,"yl":1089,"ided":1090,"cept":1091,"amed":1092,"ange":1093,"Ġpass":1094,"ized":1095,"Ġhead":1096,"ven":1097,"Ġappear":1098,"ured":1099,"ially":1100,"Ġkm":1101,"Ġaug":1102,"Ġuse":1103,"Ġmillion":1104,"Ġwee":1105,"Ġocc":1106,"Ġlife":1107,"Ġbook":1108,"ram":1109,"Ġann":1110,"Ġhel":1111,"Ġmajor":1112,"Ġfive":1113,"Ġimp":1114,"Ġsuccess":1115,"Ġaugust":1116,"Ġju":1117,"Ġbest":1118,"Ġeu":1119,"Ġeff":1120,"Ġroad":1121,"ont":1122,"Ġmiss":1123,"Ġsmall":1124,"Ġsupport":1125,"Ġcommand":1126,"ull":1127,"Ġserv":1128,"rap":1129,"Ġcamp":1130,"Ġschool":1131,"Ġtown":1132,"stem":1133,"Ġste":1134,"Ġra":1135,"Ġcompany":1136,"Ġline":1137,"ible":1138,"Ġmed":1139,"Ġ195":1140,"ys":1141,"Ġanother":1142,"itt":1143,"ked":1144,"Ġaward":1145,"Ġfinal":1146,"Ġsl":1147,"Ġcharacter":1148,"Ġif":1149,"Ġmag":1150,"Ġcontro":1151,"ony":1152,"Ġ%":1153,"Ġconc":1154,"Ġsept":1155,"Ġattack":1156,"Ġpublic":1157,"Ġdirect":1158,"Ġconsid":1159,"ind":1160,"Ġpri":1161,"Ġgreat":1162,"ouse":1163,"Ġjust":1164,"Ġseptember":1165,"ivers":1166,"Ġsystem":1167,"ues":1168,"Ġstorm":1169,"xt":1170,"anc":1171,"Ġreport":1172,"ists":1173,"Ġcolle":1174,"enn":1175,"Ġclass":1176,"az":1177,"ms":1178,"Ġcr":1179,"ium":1180,"Ġgames":1181,"Ġty":1182,"Ġwhat":1183,"Ġaustral":1184,"Ġ13":1185,"aining":1186,"Ġresult":1187,"Ġtit":1188,"Ġ193":1189,"Ġgre":1190,"ier":1191,"uth":1192,"ient":1193,"Ġfur":1194,"ales":1195,"Ġchild":1196,"els":1197,"Ġel":1198,"ution":1199,"Ġdue":1200,"Ġ191":1201,"Ġshort":1202,"Ġleg":1203,"ended":1204,"ague":1205,"Ġprom":1206,"Ġmid":1207,"ah":1208,"Ġii":1209,"Ġname":1210,"ural":1211,"Ġconf":1212,"dom":1213,"Ġlast":1214,"Ġexp":1215,"Ġwater":1216,"Ġtop":1217,"lish":1218,"Ġjune":1219,"Ġtri":1220,"Ġhistory":1221,"Ġhum":1222,"Ġrest":1223,"Ġnow":1224,"Ġorder":1225,"Ġeast":1226,"Ġeven":1227,"Ġvide":1228,"ement":1229,"Ġblack":1230,"ina":1231,"aving":1232,"Ġlate":1233,"Ġbuild":1234,"aced":1235,"Ġreview":1236,"Ġhome":1237,"Ġgovernment":1238,"Ġgerman":1239,"Ġmy":1240,"Ġoct":1241,"Ġway":1242,"over":1243,"Ġisland":1244,"ves":1245,"Ġrom":1246,"get":1247,"Ġreceived":1248,"Ġche":1249,"Ġbre":1250,"ilt":1251,"Ġjan":1252,"Ġpartic":1253,"Ġdescribed":1254,"Ġturn":1255,"Ġaccord":1256,"ately":1257,"Ġwithin":1258,"Ġspecies":1259,"Ġmuch":1260,"Ġgiv":1261,"Ġchrist":1262,"Ġincre":1263,"Ġge":1264,"Ġclub":1265,"Ġtrack":1266,"ober":1267,"Ġdeath":1268,"uary":1269,"Ġfamily":1270,"Ġoctober":1271,"Ġ14":1272,"Ġplayed":1273,"Ġ$":1274,"Ġcour":1275,"Ġaccording":1276,"Ġleague":1277,"Ġhur":1278,"Ġintern":1279,"Ġgun":1280,"cess":1281,"Ġir":1282,"Ġcor":1283,"Ġmen":1284,"Ġtook":1285,"Ġgeneral":1286,"Ġstru":1287,"Ġtimes":1288,"ropical":1289,"ger":1290,"Ġthird":1291,"pect":1292,"Ġgod":1293,"Ġvis":1294,"aw":1295,"Ġ[":1296,"Ġ]":1297,"ets":1298,"Ġmount":1299,"rote":1300,"Ġhal":1301,"aged":1302,"Ġprog":1303,"ody":1304,"Ġcapt":1305,"Ġsingle":1306,"Ġjuly":1307,"Ġwrote":1308,"ages":1309,"Ġwon":1310,"Ġant":1311,"Ġtech":1312,"..":1313,"ble":1314,"Ġlist":1315,"Ġprot":1316,"ock":1317,"Ġpower":1318,"empt":1319,"ional":1320,"sion":1321,"Ġvideo":1322,"aim":1323,"ril":1324,"ology":1325,"gin":1326,"Ġ...":1327,"Ġ25":1328,"Ġconstru":1329,"Ġdem":1330,"Ġarch":1331,"Ġdiffer":1332,"Ġbased":1333,"ified":1334,"Ġmarch":1335,"ball":1336,"Ġapril":1337,"Ġevent":1338,"be":1339,"Ġes":1340,"Ġunivers":1341,"Ġallow":1342,"ats":1343,"Ġgl":1344,"ored":1345,"Ġposs":1346,"Ġsoc":1347,"Ġeuro":1348,"ving":1349,"Ġwhite":1350,"Ġincluded":1351,"Ġnort":1352,"Ġcommon":1353,"Ġdest":1354,"Ġorgan":1355,"Ġaddition":1356,"Ġstre":1357,"Ġyork":1358,"Ġappro":1359,"iod":1360,"ility":1361,"Ġestab":1362,"Ġthose":1363,"Ġstory":1364,"Ġdivision":1365,"Ġleft":1366,"Ġjanuary":1367,"Ġnamed":1368,"Ġvery":1369,"Ġbelie":1370,"Ġperson":1371,"by":1372,"Ġengland":1373,"Ġattempt":1374,"ner":1375,"Ġtem":1376,"ism":1377,"Ġposition":1378,"ron":1379,"Ġperiod":1380,"Ġav":1381,"ants":1382,"Ġprevious":1383,"por":1384,"iam":1385,"hen":1386,"Ġhouse":1387,"Ġ30":1388,"Ġdel":1389,"omin":1390,"Ġlos":1391,"Ġexpl":1392,"ption":1393,"Ġoriginal":1394,"ital":1395,"Ġdece":1396,"Ġresp":1397,"Ġmor":1398,"akes":1399,"Ġeas":1400,"ctions":1401,"ds":1402,"Ġbas":1403,"Ġfore":1404,"Ġref":1405,"ple":1406,"Ġfoot":1407,"ars":1408,"ament":1409,"Ġauth":1410,"vember":1411,"Ġheav":1412,"Ġnovember":1413,"Ġmonth":1414,"Ġvill":1415,"Ġbus":1416,"ash":1417,"ilar":1418,"ster":1419,"ime":1420,"Ġvict":1421,"Ġplace":1422,"Ġeurope":1423,"hel":1424,"ances":1425,"Ġtropical":1426,"Ġcommun":1427,"ograp":1428,"Ġkill":1429,"Ġval":1430,"ently":1431,"Ġdecember":1432,"Ġdr":1433,"Ġ192":1434,"Ġbuilt":1435,"Ġsw":1436,"Ġchamp":1437,"Ġsimilar":1438,"Ġsom":1439,"Ġfield":1440,"ense":1441,"Ġlight":1442,"Ġamong":1443,"Ġhand":1444,"raft":1445,"Ġstand":1446,"Ġsongs":1447,"ides":1448,"Ġhurric":1449,"ience":1450,"Ġsent":1451,"Ġmake":1452,"Ġreal":1453,"Ġpresent":1454,"Ġled":1455,"ulation":1456,"Ġmilit":1457,"Ġer":1458,"row":1459,"Ġx":1460,"ians":1461,"Ġfurther":1462,"ink":1463,"Ġinit":1464,"Ġplayer":1465,"ount":1466,"ting":1467,"Ġwom":1468,"Ġred":1469,"ached":1470,"Ġsug":1471,"Ġpat":1472,"ature":1473,"ched":1474,"Ġstill":1475,"Ġlocal":1476,"ham":1477,"Ġtele":1478,"Ġmark":1479,"Ġtour":1480,"Ġsol":1481,"Ġnext":1482,"Ġ100":1483,"Ġ2009":1484,"Ġlaw":1485,"Ġweek":1486,"Ġrequ":1487,"Ġ2010":1488,"eder":1489,"ĠÂ":1490,"Ġ2008":1491,"ling":1492,"med":1493,"ention":1494,"Ġyoun":1495,"ards":1496,"Ġbill":1497,"Ġfri":1498,"ract":1499,"let":1500,"Ġview":1501,"Ġtot":1502,"Ġtrad":1503,"Ġlove":1504,"arch":1505,"Ġexper":1506,"iation":1507,"ences":1508,"ark":1509,"ives":1510,"Ġrole":1511,"Ġhistor":1512,"Ġcame":1513,"hy":1514,"Ġsqu":1515,"Ġiss":1516,"Ġimport":1517,"Ġbrig":1518,"Ġevery":1519,"Ġright":1520,"Ġrock":1521,"Ġcal":1522,"Ġmoved":1523,"Ġcareer":1524,"Ġuniversity":1525,"Ġhar":1526,"na":1527,"Ġwithout":1528,"Ġrepl":1529,"Ġplan":1530,"mer":1531,"Ġoften":1532,"Ġeffect":1533,"rench":1534,"gy":1535,"Ġrecorded":1536,"Ġside":1537,"Ġfew":1538,"Ġfar":1539,"ically":1540,"Ġlow":1541,"Ġband":1542,"Ġhurricane":1543,"Ġsay":1544,"Ġcur":1545,"Ġmilitary":1546,"min":1547,"ison":1548,"Ġlevel":1549,"Ġcaus":1550,"Ġconsidered":1551,"aken":1552,"Ġpolit":1553,"Ġbattal":1554,"Ġchart":1555,"Ġsk":1556,"Ġje":1557,"Ġproduction":1558,"Ġarmy":1559,"Ġcle":1560,"Ġmemb":1561,"Ġrelease":1562,"Ġrefer":1563,"bs":1564,"Ġ2007":1565,"Ġsuggest":1566,"Ġobs":1567,"Ġless":1568,"Ġmove":1569,"Ġproject":1570,"Ġformer":1571,"Ġpark":1572,"ops":1573,"Ġsee":1574,"Ġdeb":1575,"Ġcover":1576,"Ġassoc":1577,"bo":1578,"yle":1579,"Ġfrench":1580,"ories":1581,"Ġnever":1582,"ged":1583,"aster":1584,"que":1585,"Ġenglish":1586,"Ġclaim":1587,"Ġsold":1588,"Ġcast":1589,"ensive":1590,"Ġpoint":1591,"Ġpublished":1592,"Ġbeh":1593,"Ġpost":1594,"Ġwritten":1595,"Ġsuper":1596,"Ġrepres":1597,"Ġtake":1598,"Ġcontinued":1599,"Ġhalf":1600,"self":1601,"Ġinfl":1602,"Ġdifferent":1603,"Ġbattle":1604,"Ġmoder":1605,"erv":1606,"thing":1607,"wards":1608,"ady":1609,"aur":1610,"Ġforces":1611,"Ġdays":1612,"Ġfeder":1613,"ene":1614,"Ġinternational":1615,"ai":1616,"Ġheld":1617,"elt":1618,"Ġroute":1619,"Ġmanag":1620,"bert":1621,"Ġauthor":1622,"aff":1623,"ior":1624,"Ġfre":1625,"atter":1626,"ister":1627,"uted":1628,"ae":1629,"side":1630,"ico":1631,"Ġcoun":1632,"Ġroy":1633,"Ġstrong":1634,"Ġforce":1635,"Ġprof":1636,"ps":1637,"Ġnight":1638,"Ġrad":1639,"Ġfire":1640,"Ġgood":1641,"Ġfriend":1642,"ness":1643,"Ġcult":1644,"ov":1645,"eng":1646,"Ġdesp":1647,"Ġang":1648,"Ġhaving":1649,"Ġcounty":1650,"Ġpress":1651,"Ġtro":1652,"ery":1653,"Ġthroughout":1654,"Ġ21":1655,"Ġsound":1656,"Ġcontrol":1657,"Ġchampions":1658,"Ġlive":1659,"Ġcompet":1660,"Ġ2011":1661,"ission":1662,"Ġpit":1663,"Ġnav":1664,"Ġmembers":1665,"estern":1666,"Ġstat":1667,"iment":1668,"ots":1669,"ott":1670,"posed":1671,"vision":1672,"Ġbecome":1673,"Ġ2006":1674,"Ġchildren":1675,"Ġjack":1676,"Ġchang":1677,"Ġcross":1678,"Ġfun":1679,"Ġversion":1680,"Ġpopular":1681,"Ġ23":1682,"Ġcanad":1683,"Ġtitle":1684,"Ġdevelopment":1685,"Ġtotal":1686,"Ġwal":1687,"br":1688,"Ġparticular":1689,"Ġgold":1690,"Ġlost":1691,"bru":1692,"Ġ&":1693,"me":1694,"itar":1695,"uss":1696,"Ġhighway":1697,"app":1698,"Ġcountry":1699,"Ġcomb":1700,"Ġdespite":1701,"par":1702,"rodu":1703,"Ġroman":1704,"Ġha":1705,"Ġprogram":1706,"iter":1707,"Ġdefe":1708,"Ġcy":1709,"Ġho":1710,"Ġwant":1711,"Ġfree":1712,"Ġec":1713,"thern":1714,"Ġfebru":1715,"Ġsouthern":1716,"Ġfebruary":1717,"Ġfle":1718,"Ġeight":1719,"Ġdecl":1720,"Ġnet":1721,"Ġreported":1722,"ern":1723,"Ġlitt":1724,"Ġgave":1725,"Ġ22":1726,"Ġproduced":1727,"Ġrepresent":1728,"Ġlittle":1729,"erc":1730,"Ġdra":1731,"Ġcritic":1732,"Ġ!":1733,"idge":1734,"Ġ26":1735,"Ġdet":1736,"Ġnovel":1737,"Ġcentral":1738,"ches":1739,"Ġdyl":1740,"Ġgrand":1741,"Ġdylan":1742,"Ġ24":1743,"Ġgeor":1744,"Ġwat":1745,"Ġsit":1746,"Ġsum":1747,"Ġsite":1748,"Ġfem":1749,"Ġrich":1750,"Ġactiv":1751,"inc":1752,"Ġcat":1753,"Ġonce":1754,"Ġ2012":1755,"Ġwriting":1756,"Ġtelevision":1757,"Ġgiven":1758,"line":1759,"Ġinflu":1760,"nd":1761,"Ġtre":1762,"roy":1763,"ices":1764,"Ġfort":1765,"ailed":1766,"Ġnorther":1767,"Ġve":1768,"aces":1769,"Ġcompos":1770,"iety":1771,"Ġpresident":1772,"ler":1773,"Ġhuman":1774,"Ġdon":1775,"Ġhero":1776,"Ġcoast":1777,"Ġservice":1778,"Ġprote":1779,"Ġarri":1780,"Ġnorthern":1781,"ival":1782,"Ġaff":1783,"Ġmod":1784,"Ġpa":1785,"Ġjap":1786,"itions":1787,"Ġyoung":1788,"Ġjapan":1789,"ertain":1790,"Ġsignific":1791,"ret":1792,"Ġvi":1793,"Ġinclude":1794,"vers":1795,"ried":1796,"Ġinvol":1797,"Ġground":1798,"Ġmodern":1799,"ering":1800,"ring":1801,"Ġ28":1802,"Ġmatch":1803,"day":1804,"Ġage":1805,"Ġwestern":1806,"Ġbattalion":1807,"Ġfact":1808,"Ġmaking":1809,"Ġham":1810,"Ġshould":1811,"Ġafric":1812,"Ġroyal":1813,"ead":1814,"Ġaway":1815,"ression":1816,"Ġeastern":1817,"Ġbody":1818,"Ġmass":1819,"Ġseven":1820,"ize":1821,"Ġestabl":1822,"Ġpal":1823,"osp":1824,"Ġ2013":1825,"Ġoccur":1826,"Ġmi":1827,"Ġlab":1828,"Ġseen":1829,"ively":1830,"Ġarg":1831,"Ġstruct":1832,"enc":1833,"Ġpur":1834,"ston":1835,"ected":1836,"Ġhor":1837,"arn":1838,"Ġlim":1839,"Ġstated":1840,"Ġburn":1841,"Ġfif":1842,"Ġlook":1843,"ross":1844,"Ġacross":1845,"Ġcou":1846,"ither":1847,"Ġinstead":1848,"craft":1849,"Ġill":1850,"Ġce":1851,"Ġball":1852,"Ġfather":1853,"Ġhour":1854,"Ġtoo":1855,"ploy":1856,"Ġships":1857,"Ġreturned":1858,"ising":1859,"Ġdav":1860,"Ġearli":1861,"Ġtechn":1862,"Ġestablished":1863,"Ġta":1864,"Ġft":1865,"Ġequ":1866,"rent":1867,"Ġguitar":1868,"Ġusing":1869,"Ġdestroy":1870,"xim":1871,"Ġdou":1872,"Ġpopulation":1873,"Ġ190":1874,"Ġamerica":1875,"Ġconstruction":1876,"Ġdri":1877,"sequ":1878,"Ġnoted":1879,"Ġchampionship":1880,"Ġfull":1881,"Ġire":1882,"Ġannoun":1883,"Ġreached":1884,"Ġdeveloped":1885,"Ġbuilding":1886,"Ġwood":1887,"Ġhig":1888,"Ġ50":1889,"Ġthought":1890,"ably":1891,"Ġintrodu":1892,"Ġplayers":1893,"Ġireland":1894,"Ġbrigade":1895,"Ġten":1896,"Ġmix":1897,"Ġvarious":1898,"Ġfootball":1899,"Ġtyp":1900,"inted":1901,"Ġpra":1902,"ades":1903,"play":1904,"Ġmean":1905,"Ġsignificant":1906,"fic":1907,"Ġciv":1908,"Ġworks":1909,"Ġengine":1910,"Ġperformance":1911,"Ġ27":1912,"Ġprim":1913,"Ġimportant":1914,"Ġlond":1915,"Ġbroad":1916,"Ġmiles":1917,"Ġlondon":1918,"Ġtor":1919,"Ġhimself":1920,"Ġkingdom":1921,"ground":1922,"Ġson":1923,"Ġfind":1924,"Ġwilliam":1925,"Ġread":1926,"Ġstyle":1927,"Ġnews":1928,"ford":1929,"aint":1930,"ument":1931,"Ġclose":1932,"Ġperformed":1933,"most":1934,"Ġfelt":1935,"Ġmich":1936,"ese":1937,"Ġbird":1938,"used":1939,"Ġaustralia":1940,"idence":1941,"ological":1942,"Ġdiscover":1943,"Ġareas":1944,"Ġfeet":1945,"Ġofficial":1946,"Ġide":1947,"ying":1948,"Ġwent":1949,"Ġneed":1950,"Ġevents":1951,"Ġinterest":1952,"utes":1953,"Ġindust":1954,"Ġdoes":1955,"Ġcas":1956,"Ġfront":1957,"Ġrelations":1958,"Ġcomplete":1959,"co":1960,"Ġmm":1961,"Ġhy":1962,"Ġpoem":1963,"rew":1964,"ones":1965,"Ġdied":1966,"Ġrange":1967,"Ġcivil":1968,"Ġcup":1969,"Ġfig":1970,"Ġfall":1971,"Ġbrown":1972,"Ġput":1973,"Ġbegin":1974,"Ġsuccessful":1975,"atic":1976,"Ġhol":1977,"Ġconv":1978,"Ġothers":1979,"Ġrelig":1980,"Ġoriginally":1981,"Ġsett":1982,"che":1983,"Ġmother":1984,"Ġvir":1985,"aren":1986,"Ġcourt":1987,"reek":1988,"Ġupon":1989,"aign":1990,"Ġcampaign":1991,"iving":1992,"Ġbase":1993,"Ġdev":1994,"ief":1995,"Ġtrave":1996,"Ġclos":1997,"Ġformed":1998,"Ġstarted":1999,"Ġlet":2000,"Ġjames":2001,"Ġknow":2002,"Ġsurv":2003,"Ġstars":2004,"Ġcharacters":2005,"Ġpolitical":2006,"ration":2007,"Ġlang":2008,"Ġearth":2009,"Ġwomen":2010,"itive":2011,"Ġbow":2012,"Ġget":2013,"val":2014,"Ġsuff":2015,"Ġwide":2016,"Ġborn":2017,"ung":2018,"Ġfac":2019,"antic":2020,"Ġcaused":2021,"Ġtest":2022,"Ġlocated":2023,"Ġeventually":2024,"Ġscient":2025,"Ġpromot":2026,"Ġcam":2027,"Ġphil":2028,"Ġtradition":2029,"Ġtur":2030,"Ġvo":2031,"Ġelect":2032,"Ġdirector":2033,"ape":2034,"Ġvol":2035,"Ġcenter":2036,"Ġcritics":2037,"Ġprofess":2038,"ints":2039,"Ġable":2040,"Ġspecial":2041,"Ġentire":2042,"Ġcreated":2043,"Ġstreet":2044,"au":2045,"ael":2046,"ob":2047,"Ġbur":2048,"Ġrese":2049,"Ġ189":2050,"Ġword":2051,"Ġ2004":2052,"ending":2053,"ound":2054,"Ġod":2055,"Ġwall":2056,"alth":2057,"Ġ2005":2058,"Ġregion":2059,"Ġda":2060,"ucle":2061,"lo":2062,"Ġhold":2063,"ript":2064,"Ġproduc":2065,"Ġbi":2066,"Ġhill":2067,"Ġly":2068,"Ġmagaz":2069,"Ġol":2070,"Ġcir":2071,"Ġcer":2072,"Ġfight":2073,"ened":2074,"Ġhen":2075,"Ġatl":2076,"rick":2077,"onom":2078,"cil":2079,"Ġtoget":2080,"Ġtogether":2081,"work":2082,"iness":2083,"Ġhot":2084,"Ġbecom":2085,"Ġmeet":2086,"ove":2087,"Ġheavy":2088,"ĠâĢĻ":2089,"Ġindep":2090,"Ġindepend":2091,"sh":2092,"Ġpred":2093,"ogn":2094,"ressed":2095,"Ġfav":2096,"Ġhelp":2097,"Ġgal":2098,"Ġstri":2099,"Ġrac":2100,"aves":2101,"ample":2102,"Ġremained":2103,"omb":2104,"Ġgrow":2105,"ination":2106,"iting":2107,"Ġanim":2108,"Ġagre":2109,"Ġcompleted":2110,"Ġguns":2111,"fall":2112,"Ġscored":2113,"Ġdiffic":2114,"Ġdifficult":2115,"Ġsea":2116,"Ġdepart":2117,"isted":2118,"Ġaustralian":2119,"Ġannounced":2120,"Ġtowns":2121,"Ġloss":2122,"iers":2123,"Ġnucle":2124,"Ġalmost":2125,"Ġfourth":2126,"ges":2127,"ator":2128,"Ġnon":2129,"Ġchap":2130,"Ġgoal":2131,"asing":2132,"Ġpeak":2133,"Ġforest":2134,"Ġhom":2135,"Ġcomment":2136,"Ġprocess":2137,"Ġleast":2138,"Ġdamage":2139,"Ġbehind":2140,"cut":2141,"Ġpen":2142,"Ġcondom":2143,"ivid":2144,"Ġparty":2145,"Ġmot":2146,"Ġadded":2147,"ney":2148,"Ġaud":2149,"itted":2150,"Ġjour":2151,"rought":2152,"Ġfollowed":2153,"Ġmonths":2154,"Ġwife":2155,"Ġbir":2156,"Ġbay":2157,"Ġredu":2158,"Ġ31":2159,"Ġcolon":2160,"Ġappeared":2161,"Ġterrit":2162,"ray":2163,"ara":2164,"Ġkilled":2165,"Ġsquad":2166,"Ġrelationship":2167,"Ġaver":2168,"Ġvoc":2169,"Ġplaying":2170,"Ġinn":2171,"Ġrail":2172,"Ġsex":2173,"Ġawards":2174,"Ġdavid":2175,"Ġident":2176,"Ġcop":2177,"Ġhon":2178,"Ġtom":2179,"Ġcirc":2180,"Ġcell":2181,"enced":2182,"Ġcond":2183,"Ġfeatures":2184,"ald":2185,"Ġindivid":2186,"Ġnat":2187,"Ġstation":2188,"ota":2189,"rie":2190,"iated":2191,"Ġsan":2192,"Ġinform":2193,"ality":2194,"Ġ29":2195,"Ġenc":2196,"Ġaircraft":2197,"ls":2198,"Ġ2003":2199,"Ġtaken":2200,"Ġnar":2201,"enth":2202,"Ġsele":2203,"Ġround":2204,"Ġaccom":2205,"Ġfrance":2206,"Ġsour":2207,"Ġrecogn":2208,"Ġ40":2209,"Ġ185":2210,"Ġflight":2211,"Ġappo":2212,"Ġ2015":2213,"Ġfleet":2214,"een":2215,"Ġdi":2216,"Ġquar":2217,"Ġleading":2218,"Ġjew":2219,"acy":2220,"ries":2221,"Ġestim":2222,"Ġinfant":2223,"Ġaction":2224,"Ġcreat":2225,"Ġrank":2226,"Ġeither":2227,"Ġserved":2228,"Ġrecording":2229,"Ġsubsequ":2230,"gr":2231,"Ġtreat":2232,"Ġtowards":2233,"Ġlack":2234,"Ġlangu":2235,"Ġtrib":2236,"Ġcase":2237,"Ġhall":2238,"ully":2239,"Ġproble":2240,"Ġoperations":2241,"ique":2242,"Ġden":2243,"emy":2244,"Ġwind":2245,"Ġsport":2246,"aly":2247,"Ġparli":2248,"cher":2249,"wh":2250,"ream":2251,"Ġfund":2252,"Ġmem":2253,"Ġsaw":2254,"Ġsym":2255,"Ġelements":2256,"Ġdecided":2257,"Ġmach":2258,"Ġtransport":2259,"olution":2260,"Ġrul":2261,"Ġrecords":2262,"Ġber":2263,"Ġhost":2264,"pec":2265,"aper":2266,"Ġcoll":2267,"Ġsoon":2268,"Ġgenerally":2269,"Ġbelieved":2270,"Ġmagazine":2271,"Ġsepar":2272,"osaur":2273,"Ġrobert":2274,"Ġarchae":2275,"Ġfa":2276,"Ġcurrent":2277,"Ġca":2278,"ille":2279,"Ġcarey":2280,"Ġfemale":2281,"Ġparliament":2282,"Ġach":2283,"Ġcard":2284,"Ġhard":2285,"Ġimpro":2286,"Ġdraw":2287,"cent":2288,"Ġcommission":2289,"ization":2290,"Ġflor":2291,"Ġaccept":2292,"Ġmanager":2293,"Ġmater":2294,"Ġdu":2295,"Ġreach":2296,"Ġexample":2297,"Ġpoints":2298,"Ġmeas":2299,"Ġflood":2300,"Ġcouncil":2301,"Ġinfantry":2302,"dle":2303,"Ġsal":2304,"Ġmad":2305,"Ġcong":2306,"Ġcommerc":2307,"Ġ188":2308,"ought":2309,"Ġprem":2310,"Ġweeks":2311,"Ġbusiness":2312,"field":2313,"Ġtow":2314,"Ġrather":2315,"Ġregular":2316,"Ġstudy":2317,"igned":2318,"Ġmex":2319,"Ġeuropean":2320,"ush":2321,"Ġrose":2322,"Ġexc":2323,"Ġoutside":2324,"Ġfederer":2325,"ze":2326,"Ġopened":2327,"Ġsun":2328,"ida":2329,"Ġrespect":2330,"Ġregard":2331,"Ġlaun":2332,"Ġdirected":2333,"Ġbrought":2334,"Ġsaf":2335,"Ġbra":2336,"Ġfinished":2337,"Ġinterv":2338,"iction":2339,"king":2340,"Ġsil":2341,"Ġwales":2342,"onic":2343,"Ġdomin":2344,"Ġstop":2345,"Ġcost":2346,"rict":2347,"Ġearlier":2348,"Ġsat":2349,"Ġmer":2350,"Ġder":2351,"icated":2352,"ceed":2353,"ways":2354,"Ġfeatured":2355,"Ġpast":2356,"Ġviet":2357,"Ġyard":2358,"Ġcontract":2359,"Ġeduc":2360,"Ġvictory":2361,"Ġachie":2362,"ned":2363,"Ġmember":2364,"Ġstage":2365,"Ġexe":2366,"Ġtype":2367,"ino":2368,"Ġfoc":2369,"Ġgir":2370,"my":2371,"rest":2372,"Ġblue":2373,"mar":2374,"ming":2375,"Ġtal":2376,"Ġsn":2377,"Ġinvest":2378,"Ġprovided":2379,"Ġassociation":2380,"hic":2381,"nes":2382,"rang":2383,"Ġbey":2384,"ids":2385,"ordan":2386,"Ġadm":2387,"Ġworking":2388,"Ġopening":2389,"Ġvillage":2390,"ole":2391,"Ġ35":2392,"ography":2393,"Ġtroops":2394,"Ġwanted":2395,"den":2396,"Ġbig":2397,"Ġroom":2398,"Ġinsp":2399,"Ġappearance":2400,"af":2401,"Ġbeg":2402,"Ġstay":2403,"imes":2404,"Ġjordan":2405,"Ġdeal":2406,"Ġunion":2407,"Ġ186":2408,"Ġpriv":2409,"Ġobser":2410,"Ġparticularly":2411,"Ġfly":2412,"Ġthom":2413,"Ġrap":2414,"Ġcondu":2415,"Ġsecret":2416,"ency":2417,"Ġcut":2418,"Ġcru":2419,"Ġanc":2420,"Ġmos":2421,"Ġreason":2422,"ama":2423,"Ġrace":2424,"Ġsequ":2425,"Ġprob":2426,"Ġ2014":2427,"Ġmuse":2428,"Ġwinds":2429,"Ġdepression":2430,"Ġcrew":2431,"Ġinitially":2432,"Ġatlantic":2433,"ctor":2434,"Ġevidence":2435,"Ġesc":2436,"medi":2437,"Ġconn":2438,"Ġoffice":2439,"Ġlargest":2440,"Ġradio":2441,"ping":2442,"oring":2443,"Ġreve":2444,"Ġru":2445,"Ġminor":2446,"Ġemploy":2447,"Ġchristian":2448,"Ġgeorge":2449,"Ġmuseum":2450,"han":2451,"Ġmac":2452,"Ġpossible":2453,"uter":2454,"yn":2455,"Ġmary":2456,"Ġreb":2457,"Ġcome":2458,"com":2459,"Ġmiddle":2460,"Ġsummer":2461,"pan":2462,"read":2463,"Ġhit":2464,"Ġleng":2465,"Ġyards":2466,"Ġabove":2467,"west":2468,"hest":2469,"ude":2470,"Ġpract":2471,"Ġinstit":2472,"Ġflorida":2473,"Ġath":2474,"ask":2475,"Ġren":2476,"Ġey":2477,"Ġfeel":2478,"Ġeffort":2479,"cast":2480,"Ġsho":2481,"Ġ500":2482,"Ġaccount":2483,"Ġanti":2484,"Ġallowed":2485,"Ġsocial":2486,"Ġfriends":2487,"Ġcommercial":2488,"Ġflow":2489,"Ġnorm":2490,"Ġstren":2491,"Ġcritical":2492,"Ġsaying":2493,"Ġclear":2494,"here":2495,"Ġcreek":2496,"Ġrain":2497,"ellow":2498,"Ġspace":2499,"Ġregiment":2500,"Ġoperation":2501,"Ġsomet":2502,"Ġoliv":2503,"sel":2504,"erous":2505,"Ġwhom":2506,"Ġze":2507,"Ġhorse":2508,"Ġhours":2509,"su":2510,"Ġnine":2511,"ential":2512,"Ġrespons":2513,"Ġeconom":2514,"Ġresearch":2515,"Ġmaterial":2516,"Ġlength":2517,"ators":2518,"ouri":2519,"thod":2520,"Ġdeter":2521,"Ġexist":2522,"Ġ2001":2523,"Ġworked":2524,"Ġbrother":2525,"Ġpolice":2526,"Ġmissouri":2527,"Ġquarter":2528,"Ġwil":2529,"Ġreact":2530,"Ġreception":2531,"Ġdesigned":2532,"Ġsociety":2533,"Ġcommunity":2534,"Ġstreng":2535,"mp":2536,"anch":2537,"Ġlower":2538,"Ġliter":2539,"urb":2540,"iding":2541,"Ġcho":2542,"Ġfood":2543,"Ġspecific":2544,"Ġpreviously":2545,"Ġnomin":2546,"Ġseem":2547,"Ġneg":2548,"Ġprior":2549,"Ġforced":2550,"eler":2551,"Ġkey":2552,"board":2553,"Ġwild":2554,"ania":2555,"Ġpain":2556,"Ġmc":2557,"Ġmcc":2558,"Ġpoor":2559,"Ġremains":2560,"Ġacad":2561,"Ġrepubl":2562,"Ġera":2563,"ik":2564,"Ġsus":2565,"Ġgoals":2566,"Ġquick":2567,"Ġpaul":2568,"Ġdoc":2569,"Ġincreased":2570,"Ġviol":2571,"Ġpraised":2572,"onst":2573,"Ġfut":2574,"atin":2575,"Ġmust":2576,"umb":2577,"ishing":2578,"Ġindian":2579,"Ġavail":2580,"tt":2581,"aland":2582,"Ġthreat":2583,"Ġkil":2584,"Ġven":2585,"Ġ187":2586,"Ġ1970":2587,"Ġpot":2588,"Ġmur":2589,"ago":2590,"elling":2591,"Ġbackground":2592,"Ġcycl":2593,"Ġmichael":2594,"less":2595,"ply":2596,"Ġunits":2597,"Ġsurf":2598,"Ġstudio":2599,"Ġcommander":2600,"Ġmedia":2601,"Ġtaking":2602,"heast":2603,"ata":2604,"ĠÂ£":2605,"Ġegy":2606,"Ġparts":2607,"Ġwriter":2608,"Ġreplaced":2609,"Ġegypt":2610,"xas":2611,"ana":2612,"Ġmult":2613,"Ġstone":2614,"Ġstep":2615,"vert":2616,"Ġproper":2617,"Ġnavy":2618,"Ġrichard":2619,"Ġindustry":2620,"Ġinterview":2621,"Ġbal":2622,"aps":2623,"Ġshot":2624,"ession":2625,"Ġmaint":2626,"Ġuk":2627,"Ġsitu":2628,"gg":2629,"Ġface":2630,"Ġpac":2631,"ington":2632,"Ġhous":2633,"Ġhosp":2634,"Ġcapital":2635,"Ġreligious":2636,"Ġrepublic":2637,"ius":2638,"oll":2639,"Ġjud":2640,"Ġscre":2641,"Ġcommit":2642,"Ġcollege":2643,"Ġreviews":2644,"Ġhighest":2645,"uel":2646,"uck":2647,"Ġ2000":2648,"ributed":2649,"Ġassist":2650,"ĠÂ°":2651,"Ġclaimed":2652,"Ġbeginning":2653,"Ġhenry":2654,"Ġtheat":2655,"Ġcertain":2656,"Ġmph":2657,"asion":2658,"Ġsection":2659,"Ġcanada":2660,"Ġestimated":2661,"Ġban":2662,"Ġ1990":2663,"anned":2664,"ey":2665,"rated":2666,"Ġlines":2667,"amb":2668,"Ġjoined":2669,"Ġbreak":2670,"Ġapproxim":2671,"Ġjapanese":2672,"Ġaverage":2673,"Ġdrop":2674,"Ġny":2675,"Ġstories":2676,"Ġrang":2677,"Ġplaced":2678,"Ġexcept":2679,"Ġtraining":2680,"Ġphys":2681,"Ġoldham":2682,"Ġinvolved":2683,"cutive":2684,"Ġdom":2685,"Ġhapp":2686,"Ġsigned":2687,"Ġincreasing":2688,"Ġsuggested":2689,"Ġintroduced":2690,"nal":2691,"wood":2692,"Ġgar":2693,"Ġchange":2694,"Ġassemb":2695,"Ġsometimes":2696,"oon":2697,"Ġtoday":2698,"Ġdead":2699,"Ġcontr":2700,"Ġ183":2701,"hens":2702,"Ġolivier":2703,"Ġbod":2704,"Ġheart":2705,"clus":2706,"Ġscen":2707,"Ġscene":2708,"Ġitself":2709,"Ġgoing":2710,"Ġcarol":2711,"Ġvietn":2712,"Ġour":2713,"Ġpie":2714,"istic":2715,"Ġpoet":2716,"Ġimmedi":2717,"oney":2718,"Ġtransfer":2719,"Ġobject":2720,"Ġstructure":2721,"Ġmexico":2722,"Ġslow":2723,"Ġnames":2724,"Ġthus":2725,"Ġgive":2726,"ription":2727,"Ġarab":2728,"Ġadditional":2729,"Ġathlet":2730,"Ġavailable":2731,"band":2732,"rison":2733,"ties":2734,"Ġmale":2735,"Ġdate":2736,"olic":2737,"Ġairport":2738,"Ġlanguage":2739,"for":2740,"Ġwhose":2741,"Ġindia":2742,"Ġterm":2743,"Ġnearly":2744,"Ġoccup":2745,"ita":2746,"Ġinj":2747,"Ġpay":2748,"Ġchic":2749,"Ġsubst":2750,"Ġfifth":2751,"Ġthomas":2752,"Ġirish":2753,"Ġprotest":2754,"Ġapproximately":2755,"ready":2756,"aries":2757,"Ġalready":2758,"Ġcontem":2759,"ibility":2760,"porary":2761,"Ġappointed":2762,"bar":2763,"Ġaut":2764,"Ġsize":2765,"Ġmart":2766,"Ġtold":2767,"Ġnative":2768,"Ġstaff":2769,"Ġ36":2770,"Ġsyn":2771,"Ġbritain":2772,"Ġshows":2773,"Ġ1960":2774,"Ġdamaged":2775,"Ġestablish":2776,"Ġ-":2777,"pected":2778,"Ġplot":2779,"abit":2780,"Ġdiss":2781,"Ġturned":2782,"Ġissue":2783,"Ġprobably":2784,"Ġut":2785,"Ġthink":2786,"Ġintens":2787,"Ġsubject":2788,"Ġsurround":2789,"Ġwoman":2790,"bor":2791,"stand":2792,"Ġappl":2793,"Ġgrad":2794,"Ġwinning":2795,"Ġmont":2796,"Ġespec":2797,"Ġcathed":2798,"off":2799,"Ġmight":2800,"Ġdut":2801,"Ġsem":2802,"Ġtwent":2803,"Ġstudents":2804,"Ġlyric":2805,"Ġzealand":2806,"to":2807,"Ġ?":2808,"Ġran":2809,"Ġbetter":2810,"Ġpassed":2811,"Ġcaptain":2812,"Ġpacific":2813,"Ġlord":2814,"Ġord":2815,"Ġscore":2816,"Ġquest":2817,"Ġnetwork":2818,"Ġespecially":2819,"ores":2820,"head":2821,"Ġsam":2822,"arily":2823,"Ġwithd":2824,"Ġenough":2825,"Ġnotes":2826,"Ġadmin":2827,"Ġ184":2828,"Ġfailed":2829,"Ġdark":2830,"Ġforward":2831,"Ġchines":2832,"Ġboard":2833,"Ġdisplay":2834,"Ġoverall":2835,"Ġ60":2836,"Ġrunning":2837,"anna":2838,"Ġmixed":2839,"Ġchinese":2840,"go":2841,"Ġos":2842,"enon":2843,"Ġdeep":2844,"ula":2845,"Ġ45":2846,"Ġcred":2847,"iff":2848,"Ġ2002":2849,"Ġparticip":2850,"Ġdebut":2851,"Ġlimited":2852,"Ġnatural":2853,"pr":2854,"reg":2855,"aled":2856,"Ġdig":2857,"ilities":2858,"Ġdeg":2859,"Ġmusical":2860,"Ġgreen":2861,"Ġiii":2862,"Ġdaugh":2863,"Ġfuture":2864,"oid":2865,"reme":2866,"oration":2867,"Ġmoving":2868,"Ġexam":2869,"Ġwheeler":2870,"ends":2871,"Ġspan":2872,"Ġspent":2873,"Ġincludes":2874,"Ġbridge":2875,"Ġordered":2876,"Ġangel":2877,"Ġchanges":2878,"Ġarrived":2879,"Ġsen":2880,"Ġlou":2881,"Ġjin":2882,"ume":2883,"quar":2884,"Ġusually":2885,"Ġremaining":2886,"Ġlarger":2887,"Ġvisit":2888,"Ġcanadian":2889,"Ġeducation":2890,"Ġcathedral":2891,"vest":2892,"onse":2893,"Ġcath":2894,"Ġfail":2895,"Ġlay":2896,"Ġboy":2897,"Ġabs":2898,"Ġamb":2899,"Ġbirds":2900,"Ġdepartment":2901,"atory":2902,"Ġhop":2903,"Ġlake":2904,"erson":2905,"Ġpeter":2906,"Ġgrant":2907,"Ġmountain":2908,"Ġrequired":2909,"Ġbroadcast":2910,"down":2911,"fect":2912,"nel":2913,"Ġox":2914,"Ġlatter":2915,"ulated":2916,"rian":2917,"Ġdecision":2918,"Ġbab":2919,"Ġtouch":2920,"imin":2921,"Ġimm":2922,"Ġremain":2923,"Ġresponse":2924,"Ġafrica":2925,"Ġvirgin":2926,"hib":2927,"Ġpenn":2928,"Ġconcept":2929,"Ġjer":2930,"ulf":2931,"ifa":2932,"Ġrob":2933,"Ġvoice":2934,"Ġsaint":2935,"Ġnature":2936,"ada":2937,"ateg":2938,"Ġroll":2939,"Ġcoach":2940,"Ġupper":2941,"Ġbreed":2942,"ma":2943,"yer":2944,"Ġult":2945,"Ġmention":2946,"Ġmoney":2947,"Ġtraff":2948,"ference":2949,"Ġrelated":2950,"Ġgroups":2951,"Ġmounted":2952,"aring":2953,"ication":2954,"riage":2955,"Ġcentre":2956,"Ġrachel":2957,"Ġbirth":2958,"Ġterritory":2959,"bers":2960,"ining":2961,"itz":2962,"Ġscience":2963,"Ġfilms":2964,"Ġended":2965,"Ġpositive":2966,"Ġfeature":2967,"Ġbillboard":2968,"Ġprofessional":2969,"bc":2970,"cle":2971,"je":2972,"Ġcad":2973,"Ġgot":2974,"Ġhealth":2975,"Ġfinally":2976,"Ġschol":2977,"Ġsupported":2978,"Ġculture":2979,"Ġsquadron":2980,"ship":2981,"Ġoly":2982,"Ġdram":2983,"Ġliving":2984,"Ġali":2985,"Ġscott":2986,"Ġpressure":2987,"Ġbecoming":2988,"Ġolymp":2989,"ste":2990,"Ġalways":2991,"Ġamount":2992,"Ġcharles":2993,"Ġprovide":2994,"Ġbooks":2995,"Ġsmaller":2996,"Ġq":2997,"Ġself":2998,"edy":2999,"aph":3000,"Ġshown":3001,"Ġ1995":3002,"Ġemp":3003,"Ġprevent":3004,"Ġheadquar":3005,"Ġdiscovered":3006,"Ġprivate":3007,"Ġmr":3008,"aker":3009,"Ġminutes":3010,"Ġshortly":3011,"Ġconfl":3012,"Ġgods":3013,"Ġtemper":3014,"back":3015,"gar":3016,"Ġtar":3017,"Ġoce":3018,"Ġbatter":3019,"Ġnations":3020,"Ġtrade":3021,"Ġ38":3022,"Ġ1980":3023,"Ġtemple":3024,"Ġexperience":3025,"Ġfrequ":3026,"Ġdefeated":3027,"Ġtv":3028,"Ġcm":3029,"ump":3030,"uments":3031,"Ġsubsequently":3032,"selves":3033,"Ġsurface":3034,"rack":3035,"ases":3036,"Ġbox":3037,"Ġdiscuss":3038,"Ġeffects":3039,"Ġmom":3040,"Ġ80":3041,"uals":3042,"Ġwit":3043,"Ġmakes":3044,"Ġrare":3045,"Ġfox":3046,"Ġblood":3047,"Ġgreater":3048,"ault":3049,"Ġbord":3050,"Ġvan":3051,"Ġprop":3052,"Ġcompl":3053,"Ġteams":3054,"Ġpersonal":3055,"Ġcele":3056,"Ġproblems":3057,"gl":3058,"ners":3059,"inct":3060,"idents":3061,"Ġlearn":3062,"Ġintended":3063,"Ġnumbers":3064,"Ġlargely":3065,"Ġcollection":3066,"Ġidea":3067,"Ġscientology":3068,"Ġpian":3069,"Ġhair":3070,"Ġconclud":3071,"Ġplat":3072,"ishop":3073,"Ġpercent":3074,"Ġindic":3075,"Ġmostly":3076,"Ġthemselves":3077,"Ġmetres":3078,"Ġconcert":3079,"Ġhaifa":3080,"Ġprimary":3081,"stein":3082,"orial":3083,"Ġmort":3084,"Ġdj":3085,"Ġsev":3086,"agon":3087,"Ġmov":3088,"Ġunit":3089,"Ġ2016":3090,"Ġqueen":3091,"Ġlikely":3092,"Ġcaptured":3093,"Ġvalley":3094,"Ġsquare":3095,"Ġreferred":3096,"Ġmachine":3097,"Ġtell":3098,"Ġtenn":3099,"Ġcorn":3100,"iforn":3101,"Ġyet":3102,"Ġcroat":3103,"Ġconstant":3104,"Ġkeep":3105,"Ġxenon":3106,"Ġcaliforn":3107,"Ġobserv":3108,"Ġfavor":3109,"rief":3110,"Ġtraffic":3111,"Ġcause":3112,"ites":3113,"Ġparen":3114,"Ġyour":3115,"rael":3116,"Ġwhole":3117,"Ġmethod":3118,"Ġ75":3119,"Ġrelative":3120,"Ġlocation":3121,"Ġentered":3122,"onym":3123,"Ġmarket":3124,"Ġtower":3125,"rd":3126,"apt":3127,"Ġarrang":3128,"Ġvers":3129,"Ġhaw":3130,"Ġcontains":3131,"Ġfrank":3132,"Ġguard":3133,"Ġportug":3134,"Ġmajority":3135,"Ġgreatest":3136,"Ġiron":3137,"Ġlisted":3138,"Ġconstructed":3139,"Ġmorning":3140,"Ġranked":3141,"Ġlyrics":3142,"Ġheadquarters":3143,"kan":3144,"lim":3145,"Ġfru":3146,"Ġleaving":3147,"Ġ1999":3148,"Ġstarting":3149,"ires":3150,"Ġpair":3151,"ises":3152,"Ġruss":3153,"Ġwhether":3154,"ples":3155,"Ġstudies":3156,"Ġequip":3157,"Ġbowl":3158,"Ġinformation":3159,"fact":3160,"ios":3161,"ergy":3162,"Ġben":3163,"Ġpet":3164,"Ġdan":3165,"Ġdoll":3166,"Ġisrael":3167,"Ġelection":3168,"Ġcompanies":3169,"Ġofficers":3170,"Ġ1950":3171,"Ġcompetition":3172,"Ġjewish":3173,"Ġultim":3174,"Ġocean":3175,"ky":3176,"Ġhus":3177,"icted":3178,"Ġadop":3179,"oke":3180,"Ġoppos":3181,"Ġconsist":3182,"Ġcreate":3183,"Ġfighting":3184,"Ġgalvest":3185,"Ġgalveston":3186,"Ġast":3187,"Ġott":3188,"Ġbad":3189,"Ġfans":3190,"Ġtourn":3191,"ica":3192,"Ġlin":3193,"Ġchief":3194,"ught":3195,"Ġchanged":3196,"gian":3197,"omm":3198,"Ġjose":3199,"Ġproposed":3200,"Ġforms":3201,"Ġtheme":3202,"Ġepisodes":3203,"like":3204,"Ġconcern":3205,"Ġsettle":3206,"Ġcelebr":3207,"lor":3208,"ville":3209,"Ġtakes":3210,"Ġwing":3211,"Ġfest":3212,"Ġinh":3213,"Ġmaster":3214,"Ġlived":3215,"Ġjam":3216,"oss":3217,"Ġplans":3218,"Ġemer":3219,"Ġsoldiers":3220,"Ġinfluence":3221,"Ġnewsp":3222,"Ġagreed":3223,"Ġjournal":3224,"Ġcommitte":3225,"Ġadminist":3226,"men":3227,"of":3228,"Ġbrief":3229,"Ġpow":3230,"Ġlog":3231,"Ġtrue":3232,"Ġcolor":3233,"teen":3234,"Ġremo":3235,"Ġsingles":3236,"Ġruns":3237,"Ġcontroll":3238,"Ġincrease":3239,"Ġstandard":3240,"Ġmovement":3241,"Ġmeaning":3242,"Ġlaunched":3243,"Ġcalifornia":3244,"pool":3245,"zy":3246,"Ġfer":3247,"Ġded":3248,"Ġliver":3249,"iva":3250,"Ġcompared":3251,"Ġscript":3252,"Ġdeliver":3253,"Ġcounter":3254,"Ġindependent":3255,"Ġquickly":3256,"Ġcatholic":3257,"Ġcra":3258,"Ġcrick":3259,"Ġpan":3260,"Ġdum":3261,"Ġlady":3262,"urity":3263,"change":3264,"Ġsha":3265,"Ġmeant":3266,"Ġbrad":3267,"Ġminute":3268,"Ġvilla":3269,"Ġtrees":3270,"Ġoccurred":3271,"aut":3272,"ror":3273,"sen":3274,"Ġale":3275,"Ġthings":3276,"ements":3277,"Ġleave":3278,"Ġattract":3279,"Ġbring":3280,"Ġassigned":3281,"Ġaccess":3282,"Ġartist":3283,"Ġsixth":3284,"Ġmagn":3285,"Ġcorps":3286,"Ġfocus":3287,"ha":3288,"uz":3289,"Ġvot":3290,"Ġmole":3291,"illery":3292,"Ġadult":3293,"key":3294,"Ġartillery":3295,"Ġinside":3296,"Ġappears":3297,"Ġservices":3298,"Ġdefeat":3299,"Ġtax":3300,"Ġdestroyed":3301,"Ġtraditional":3302,"Ġcondoms":3303,"osaurus":3304,"Ġsafe":3305,"Ġgirl":3306,"Ġdeterm":3307,"Ġscreen":3308,"Ġtons":3309,"Ġanal":3310,"isions":3311,"Ġnix":3312,"lect":3313,"Ġgall":3314,"ability":3315,"Ġserious":3316,"Ġ400":3317,"Ġlonger":3318,"Ġschools":3319,"Ġrequest":3320,"Ġdouble":3321,"Ġchicago":3322,"Ġcontemporary":3323,"rup":3324,"Ġbomb":3325,"Ġdyn":3326,"oman":3327,"Ġhere":3328,"Ġasked":3329,"ching":3330,"Ġross":3331,"Ġens":3332,"Ġsched":3333,"Ġshell":3334,"Ġ70":3335,"Ġfranc":3336,"Ġ1940":3337,"Ġinvestig":3338,"tar":3339,"Ġaer":3340,"aded":3341,"Ġalice":3342,"andon":3343,"Ġrow":3344,"Ġbound":3345,"Ġcann":3346,"Ġcarried":3347,"Ġrevolution":3348,"Ġawarded":3349,"Ġproteins":3350,"Ġsource":3351,"Ġcyclone":3352,"hou":3353,"Ġdone":3354,"Ġhund":3355,"Ġlatin":3356,"Ġ33":3357,"Ġmarriage":3358,"Ġspir":3359,"Ġsomething":3360,"Ġ1998":3361,"Ġwriters":3362,"Ġending":3363,"Ġbuildings":3364,"Ġinitial":3365,"Ġconducted":3366,"Ġhospital":3367,"Ġdaughter":3368,"Ġhundred":3369,"ga":3370,"ii":3371,"light":3372,"well":3373,"Ġpil":3374,"outh":3375,"Ġital":3376,"Ġdistrict":3377,"Ġcomplex":3378,"Ġannual":3379,"Ġapproach":3380,"Ġassociated":3381,"Ġstatus":3382,"Ġburns":3383,"Ġrapid":3384,"Ġancient":3385,"Ġtwenty":3386,"Ġ300":3387,"Ġscot":3388,"Ġdisp":3389,"Ġprinc":3390,"Ġenter":3391,"Ġconsider":3392,"Ġ1930":3393,"Ġempire":3394,"ih":3395,"itect":3396,"Ġalkan":3397,"Ġrh":3398,"Ġconference":3399,"Ġkick":3400,"ria":3401,"Ġunable":3402,"Ġmarried":3403,"Ġ1993":3404,"Ġalbums":3405,"Ġpolish":3406,"Ġconstit":3407,"Ġarchitect":3408,"Ġcommented":3409,"ker":3410,"Ġ+":3411,"Ġga":3412,"Ġenv":3413,"Ġimage":3414,"ails":3415,"Ġprince":3416,"Ġnumerous":3417,"Ġvictor":3418,"Ġcastle":3419,"Ġafrican":3420,"Ġscenes":3421,"Ġhusband":3422,"Ġliverpool":3423,"Ġnixon":3424,"oor":3425,"Ġtay":3426,"Ġbud":3427,"Ġfow":3428,"Ġpurch":3429,"Ġmic":3430,"Ġdail":3431,"ros":3432,"Ġray":3433,"Ġ32":3434,"elled":3435,"ification":3436,"Ġproducer":3437,"Ġmel":3438,"Ġtexas":3439,"Ġminister":3440,"Ġchristm":3441,"Ġpositions":3442,"Ġmanagement":3443,"Ġinspired":3444,"ken":3445,"Ġfant":3446,"aches":3447,"Ġconver":3448,"erset":3449,"Ġspeed":3450,"Ġterms":3451,"Ġattacks":3452,"Ġtracks":3453,"Ġsomerset":3454,"iny":3455,"Ġmal":3456,"Ġhu":3457,"Ġthick":3458,"acing":3459,"ands":3460,"ander":3461,"umn":3462,"Ġearned":3463,"Ġdefense":3464,"Ġcrown":3465,"Ġlands":3466,"Ġimpact":3467,"Ġindividual":3468,"Ġaccompan":3469,"Ġmosley":3470,"Ġpiano":3471,"cing":3472,"uan":3473,"Ġrat":3474,"Ġchann":3475,"Ġplanned":3476,"Ġrecover":3477,"Ġspring":3478,"Ġ1996":3479,"Ġ90":3480,"Ġacqu":3481,"Ġvariety":3482,"Ġadvance":3483,"Ġgiving":3484,"Ġbusch":3485,"Ġissued":3486,"Ġbegins":3487,"Ġdaily":3488,"Ġign":3489,"Ġlif":3490,"Ġthrow":3491,"Ġchall":3492,"Ġvia":3493,"Ġmarked":3494,"Ġinteract":3495,"Ġactor":3496,"Ġedge":3497,"Ġperformances":3498,"Ġdirectly":3499,"Ġhistorical":3500,"Ġnuclear":3501,"Ġimmediately":3502,"Ġcommittee":3503,"Ġbid":3504,"Ġple":3505,"Ġhorn":3506,"Ġyellow":3507,"Ġunlike":3508,"Ġimag":3509,"ylv":3510,"Ġfigure":3511,"Ġdocument":3512,"Ġspanish":3513,"Ġtaylor":3514,"Ġchristmas":3515,"ca":3516,"Ġbank":3517,"Ġpath":3518,"Ġportray":3519,"Ġhelped":3520,"Ġslight":3521,"Ġorganization":3522,"Ġcombat":3523,"Ġwaters":3524,"Ġwithdra":3525,"Ġfowler":3526,"gen":3527,"oo":3528,"Ġund":3529,"Ġcand":3530,"Ġpup":3531,"Ġrein":3532,"umed":3533,"istics":3534,"Ġparis":3535,"Ġconserv":3536,"Ġpolic":3537,"Ġexperi":3538,"Ġsuffered":3539,"Ġess":3540,"Ġsout":3541,"itor":3542,"iser":3543,"ari":3544,"Ġhabit":3545,"chan":3546,"Ġuses":3547,"Ġnearby":3548,"Ġadvent":3549,"Ġbaby":3550,"eth":3551,"viet":3552,"wor":3553,"Ġom":3554,"itude":3555,"Ġreally":3556,"Ġram":3557,"Ġjane":3558,"Ġabandon":3559,"Ġsoviet":3560,"athan":3561,"Ġleaders":3562,"Ġmetal":3563,"Ġchem":3564,"Ġpresented":3565,"Ġcultural":3566,"Ġclosed":3567,"era":3568,"Ġow":3569,"Ġwis":3570,"Ġbeach":3571,"anta":3572,"ruction":3573,"Ġfinanc":3574,"Ġweap":3575,"Ġpresence":3576,"Ġraised":3577,"Ġdrum":3578,"Ġcasual":3579,"Ġvocals":3580,"Ġtarget":3581,"iant":3582,"Ġaw":3583,"hem":3584,"Ġwound":3585,"Ġnest":3586,"Ġbeat":3587,"Ġstad":3588,"urg":3589,"Ġperfect":3590,"Ġcontinue":3591,"Ġmission":3592,"Ġcontrovers":3593,"Ġattempts":3594,"Ġfigures":3595,"Ġroseber":3596,"Ġrule":3597,"Ġcarolina":3598,"Ġvirginia":3599,"ylvania":3600,"ba":3601,"kel":3602,"itation":3603,"Ġbelow":3604,"Ġrhy":3605,"ocks":3606,"Ġdism":3607,"iami":3608,"Ġhands":3609,"Ġsky":3610,"Ġcovered":3611,"Ġfederal":3612,"Ġpenns":3613,"Ġfiction":3614,"Ġpict":3615,"Ġnation":3616,"Ġrif":3617,"Ġjun":3618,"Ġkind":3619,"alled":3620,"Ġpeace":3621,"Ġrelief":3622,"Ġcontinu":3623,"Ġofficer":3624,"Ġcomposed":3625,"Ġselected":3626,"Ġassembly":3627,"Ġprincip":3628,"lin":3629,"mon":3630,"uk":3631,"once":3632,"Ġaspect":3633,"Ġdise":3634,"Ġcold":3635,"Ġ1997":3636,"Ġextended":3637,"Ġappearances":3638,"Ġcourse":3639,"Ġhigher":3640,"Ġbeyonce":3641,"Ġshoot":3642,"Ġbodies":3643,"joy":3644,"Ġfell":3645,"Ġmiami":3646,"Ġthir":3647,"etic":3648,"Ġenjoy":3649,"essa":3650,"Ġoffensive":3651,"Ġcountries":3652,"Ġgermany":3653,"Ġneeded":3654,"rical":3655,"Ġsand":3656,"Ġbond":3657,"Ġpaper":3658,"Ġthunder":3659,"anded":3660,"apo":3661,"Ġplaces":3662,"ipp":3663,"Ġ39":3664,"ously":3665,"Ġmeyer":3666,"Ġprep":3667,"Ġincor":3668,"Ġsevere":3669,"Ġpowerful":3670,"Ġsituation":3671,"standing":3672,"anas":3673,"Ġmile":3674,"room":3675,"ican":3676,"vey":3677,"Ġcomedy":3678,"Ġarts":3679,"Ġrecent":3680,"Ġtext":3681,"Ġhighly":3682,"Ġemper":3683,"Ġcrow":3684,"Ġattacked":3685,"Ġpromin":3686,"chester":3687,"Ġstrength":3688,"Ġmurder":3689,"Ġfruit":3690,"Ġfestival":3691,"ding":3692,"mium":3693,"Ġlink":3694,"Ġreject":3695,"Ġsearch":3696,"Ġsinger":3697,"Ġtransl":3698,"Ġconfir":3699,"Ġprotein":3700,"Ġcadmium":3701,"Ġanalys":3702,"Ġpennsylvania":3703,"Ġbol":3704,"Ġbass":3705,"uries":3706,"Ġnecess":3707,"Ġplant":3708,"Ġenergy":3709,"Ġinterse":3710,"Ġnorthwest":3711,"Ġedition":3712,"Ġdistance":3713,"itting":3714,"Ġallowing":3715,"Ġacademy":3716,"Ġmultip":3717,"Ġmovie":3718,"Ġremoved":3719,"Ġwr":3720,"Ġbed":3721,"Ġpul":3722,"Ġnico":3723,"vement":3724,"Ġoffered":3725,"Ġcanc":3726,"ibly":3727,"Ġassault":3728,"Ġactive":3729,"Ġopera":3730,"Ġforeign":3731,"Ġlevels":3732,"Ġjackson":3733,"Ġwidely":3734,"Ġpeaked":3735,"Ġsexual":3736,"Ġtheatre":3737,"Ġscotland":3738,"car":3739,"Ġwave":3740,"Ġbul":3741,"Ġfill":3742,"Ġpick":3743,"Ġrear":3744,"Ġris":3745,"Ġrate":3746,"Ġresc":3747,"Ġ42":3748,"Ġ182":3749,"Ġmeans":3750,"Ġ1991":3751,"Ġchris":3752,"Ġgovernor":3753,"Ġattempted":3754,"Ġsomal":3755,"Ġcombined":3756,"Ġmodel":3757,"Ġtypically":3758,"Ġmeeting":3759,"Ġvocal":3760,"Ġcopies":3761,"Ġsilver":3762,"Ġeye":3763,"ax":3764,"pole":3765,"rat":3766,"tic":3767,"track":3768,"Ġswe":3769,"Ġgard":3770,"imony":3771,"cts":3772,"Ġchina":3773,"Ġscoring":3774,"ribution":3775,"Ġthemes":3776,"Ġsoundtrack":3777,"Ġwindow":3778,"Ġrespectively":3779,"Ġresponsible":3780,"Ġstadium":3781,"Ġsister":3782,"Ġanderson":3783,"Ġthous":3784,"omet":3785,"Ġreser":3786,"Ġ47":3787,"lands":3788,"Ġgenus":3789,"Ġentertain":3790,"Ġdescribes":3791,"Ġadvant":3792,"aha":3793,"Ġislands":3794,"Ġactivities":3795,"Ġlabor":3796,"Ġsymb":3797,"Ġtouchdown":3798,"Ġanth":3799,"Ġaltern":3800,"Ġsets":3801,"Ġkak":3802,"Ġperon":3803,"Ġteach":3804,"Ġformation":3805,"Ġopp":3806,"Ġ1992":3807,"Ġexpress":3808,"Ġheavily":3809,"Ġsports":3810,"Ġbraat":3811,"Ġobserved":3812,"Ġhouses":3813,"Ġquestion":3814,"Ġenvir":3815,"Ġkakapo":3816,"bour":3817,"Ġsir":3818,"olf":3819,"Ġrough":3820,"portun":3821,"Ġ44":3822,"Ġremix":3823,"Ġopportun":3824,"Ġ1994":3825,"Ġphot":3826,"Ġrights":3827,"Ġlooking":3828,"Ġreduced":3829,"Ġparents":3830,"Ġalex":3831,"ee":3832,"Ġsales":3833,"icient":3834,"Ġbob":3835,"Ġgraph":3836,"Ġquality":3837,"Ġminnes":3838,"Ġdefence":3839,"Ġarmed":3840,"Ġmatches":3841,"Ġresulted":3842,"Ġnortheast":3843,"Ġaudience":3844,"Ġconcluded":3845,"Ġcricket":3846,"Ġminnesota":3847,"Ġwid":3848,"anced":3849,"Ġmas":3850,"ado":3851,"ett":3852,"Ġclim":3853,"Ġresidents":3854,"Ġmaxim":3855,"Ġcalling":3856,"Ġreports":3857,"Ġactivity":3858,"Ġcompletely":3859,"Ġconditions":3860,"Ġcandid":3861,"ging":3862,"hood":3863,"Ġspl":3864,"isher":3865,"Ġmun":3866,"Ġlot":3867,"Ġreform":3868,"Ġstating":3869,"Ġjim":3870,"Ġsuc":3871,"Ġmanaged":3872,"Ġprepar":3873,"Ġcarry":3874,"Ġfeaturing":3875,"Ġvehic":3876,"Ġtownsend":3877,"Ġrevealed":3878,"Ġefforts":3879,"Ġcontrast":3880,"Ġrosebery":3881,"Ġsac":3882,"Ġbon":3883,"esb":3884,"Ġfinals":3885,"Ġspecim":3886,"Ġdefend":3887,"Ġdescription":3888,"Ġartists":3889,"Ġeurop":3890,"Ġprotect":3891,"Ġrefused":3892,"Ġdeclared":3893,"Ġseparate":3894,"Ġdomest":3895,"Ġspirit":3896,"Ġitalian":3897,"Ġenviron":3898,"rate":3899,"Ġsav":3900,"Ġdress":3901,"Ġreign":3902,"Ġbell":3903,"Ġfinkel":3904,"Ġtherefore":3905,"Ġwinter":3906,"Ġsubs":3907,"Ġentr":3908,"ologist":3909,"Ġfamil":3910,"beer":3911,"Ġwalpole":3912,"Ġindependence":3913,"Ġhonor":3914,"force":3915,"Ġhawai":3916,"Ġchannel":3917,"Ġmeyerbeer":3918,"Ġfinkelstein":3919,"Ġton":3920,"Ġtessa":3921,"Ġcert":3922,"Ġlie":3923,"ental":3924,"Ġcoming":3925,"ify":3926,"aped":3927,"Ġshiva":3928,"Ġsecurity":3929,"athus":3930,"Ġseasons":3931,"Ġinstr":3932,"Ġchronic":3933,"Ġextensive":3934,"Ġextreme":3935,"Ġtitles":3936,"Ġnaval":3937,"Ġcasualties":3938,"Ġemperor":3939,"bod":3940,"Ġactions":3941,"tered":3942,"Ġyue":3943,"Ġexpected":3944,"Ġadam":3945,"Ġ51":3946,"Ġbranch":3947,"Ġ76":3948,"Ġsmith":3949,"Ġissues":3950,"Ġottoman":3951,"Ġnicole":3952,"Ġnin":3953,"oph":3954,"Ġplays":3955,"Ġweaken":3956,"Ġprec":3957,"Ġattention":3958,"Ġmainly":3959,"Ġrespond":3960,"Ġwords":3961,"Ġbecomes":3962,"Ġpractice":3963,"iate":3964,"Ġfast":3965,"Ġfish":3966,"abor":3967,"Ġ37":3968,"Ġscale":3969,"Ġoffer":3970,"Ġwebs":3971,"Ġemot":3972,"Ġstrugg":3973,"Ġtypes":3974,"Ġtournament":3975,"Ġbraathens":3976,"gal":3977,"ufact":3978,"Ġsense":3979,"isl":3980,"Ġwash":3981,"Ġconse":3982,"Ġkhan":3983,"aging":3984,"Ġshr":3985,"Ġmanufact":3986,"Ġactually":3987,"Ġlegisl":3988,"Ġprogress":3989,"Ġhait":3990,"Ġprimarily":3991,"Ġletters":3992,"Ġexcav":3993,"Ġborder":3994,"Ġultimately":3995,"Ġlis":3996,"Ġroles":3997,"ellig":3998,"Ġintellig":3999,"Ġactress":4000,"Ġliber":4001,"Ġwrite":4002,"Ġjohnson":4003,"Ġstruck":4004,"Ġdemonst":4005,"ovic":4006,"Ġillino":4007,"Ġhotel":4008,"Ġaccepted":4009,"Ġachieved":4010,"Ġcannot":4011,"bed":4012,"Ġwear":4013,"Ġbene":4014,"Ġfully":4015,"Ġgh":4016,"Ġjur":4017,"Ġsust":4018,"Ġcore":4019,"Ġrecomm":4020,"ruct":4021,"Ġweather":4022,"Ġcolony":4023,"Ġcharl":4024,"Ġjob":4025,"Ġgrass":4026,"Ġfolk":4027,"Ġfoundation":4028,"uese":4029,"Ġviewers":4030,"Ġauthority":4031,"Ġillust":4032,"arent":4033,"Ġvietnam":4034,"Ġportuguese":4035,"Ġentertainment":4036,"ny":4037,"Ġtree":4038,"onents":4039,"Ġcateg":4040,"Ġfair":4041,"leg":4042,"Ġalone":4043,"Ġjul":4044,"Ġneigh":4045,"aven":4046,"Ġadvert":4047,"Ġapart":4048,"Ġ48":4049,"Ġ181":4050,"Ġworkers":4051,"Ġelev":4052,"Ġalongside":4053,"Ġlegal":4054,"Ġantimony":4055,"Ġbehav":4056,"Ġauthorities":4057,"Ġflooding":4058,"Ġsequence":4059,"Ġrainfall":4060,"inal":4061,"Ġcab":4062,"Ġdang":4063,"Ġhors":4064,"Ġlb":4065,"urs":4066,"essions":4067,"Ġspread":4068,"Ġ52":4069,"Ġcolumb":4070,"Ġbroken":4071,"Ġelected":4072,"Ġtermin":4073,"Ġ1986":4074,"Ġowned":4075,"Ġoccasion":4076,"Ġmeasure":4077,"Ġbattery":4078,"Ġmoment":4079,"Ġnewspaper":4080,"Ġslightly":4081,"writ":4082,"Ġsr":4083,"Ġbishop":4084,"anes":4085,"Ġmales":4086,"Ġdream":4087,"Ġdata":4088,"ingu":4089,"icip":4090,"acher":4091,"Ġstan":4092,"Ġridge":4093,"ulations":4094,"ift":4095,"Ġtwice":4096,"Ġperman":4097,"Ġspain":4098,"Ġprison":4099,"Ġdefensive":4100,"Ġinches":4101,"Ġ150":4102,"Ġconcent":4103,"Ġexpressed":4104,"Ġstanding":4105,"Ġaffected":4106,"Ġconnect":4107,"Ġincorpor":4108,"cript":4109,"ope":4110,"Ġtun":4111,"Ġaid":4112,"Ġpun":4113,"Ġmess":4114,"Ġstra":4115,"Ġrug":4116,"ulpt":4117,"Ġmog":4118,"ode":4119,"Ġcomputer":4120,"Ġ34":4121,"Ġsculpt":4122,"Ġfey":4123,"Ġ180":4124,"Ġguest":4125,"Ġbattles":4126,"Ġshowed":4127,"Ġcampus":4128,"ograph":4129,"Ġofficials":4130,"Ġtravel":4131,"ceeded":4132,"Ġflying":4133,"Ġlouis":4134,"Ġdisease":4135,"Ġdomestic":4136,"Ġtint":4137,"Ġoil":4138,"Ġwels":4139,"Ġtoward":4140,"road":4141,"ushed":4142,"Ġexped":4143,"Ġcontact":4144,"Ġability":4145,"Ġmechan":4146,"Ġartic":4147,"Ġzhou":4148,"ledge":4149,"Ġvaranas":4150,"Ġbarrow":4151,"Ġpriest":4152,"Ġhistoric":4153,"Ġplanet":4154,"urban":4155,"Ġconflict":4156,"Ġtintin":4157,"Ġwelsh":4158,"Ġvaranasi":4159,"house":4160,"Ġfred":4161,"Ġandrew":4162,"Ġnesb":4163,"Ġheight":4164,"Ġkr":4165,"ems":4166,"resh":4167,"Ġqual":4168,"Ġapparent":4169,"Ġdirection":4170,"Ġtitled":4171,"Ġphysical":4172,"onymous":4173,"Ġnesbitt":4174,"aen":4175,"ications":4176,"Ġlives":4177,"Ġnick":4178,"emic":4179,"Ġeva":4180,"Ġacting":4181,"Ġproduce":4182,"Ġcontinues":4183,"Ġsays":4184,"Ġskin":4185,"Ġsites":4186,"Ġcomposition":4187,"Ġearliest":4188,"Ġodaen":4189,"Ġceres":4190,"Ġindividuals":4191,"Ġencour":4192,"Ġangeles":4193,"Ġmentioned":4194,"Ġfinancial":4195,"Ġenvironment":4196,"Ġodaenathus":4197,"pa":4198,"Ġsides":4199,"Ġsarn":4200,"Ġcities":4201,"Ġbor":4202,"Ġalab":4203,"rial":4204,"Ġtru":4205,"Ġsinging":4206,"Ġfounded":4207,"Ġdistinct":4208,"pedo":4209,"Ġresulting":4210,"Ġ1920":4211,"Ġinfluenced":4212,"Ġengineer":4213,"Ġtorpedo":4214,"Ġcerem":4215,"Ġolympic":4216,"Ġadopted":4217,"Ġdumont":4218,"Ġfrancis":4219,"Ġsarnia":4220,"bury":4221,"hew":4222,"onna":4223,"Ġnote":4224,"Ġofficially":4225,"Ġelse":4226,"Ġbasis":4227,"Ġfarm":4228,"Ġrepresented":4229,"Ġjourney":4230,"Ġsources":4231,"while":4232,"Ġexecutive":4233,"Ġpotential":4234,"Ġdigital":4235,"Ġdedicated":4236,"Ġanalysis":4237,"Ġadvantage":4238,"Ġillinois":4239,"bird":4240,"Ġid":4241,"Ġbott":4242,"Ġfat":4243,"alty":4244,"Ġrepe":4245,"uled":4246,"Ġka":4247,"Ġpropos":4248,"ocr":4249,"Ġmanchester":4250,"Ġdoing":4251,"Ġapple":4252,"Ġstudios":4253,"helm":4254,"Ġhyd":4255,"Ġsurrounding":4256,"Ġthunderbird":4257,"Ġmogad":4258,"fort":4259,"hl":4260,"Ġwed":4261,"Ġfaced":4262,"Ġdog":4263,"Ġlib":4264,"etts":4265,"Ġvess":4266,"Ġexhib":4267,"Ġmedical":4268,"Ġdelay":4269,"Ġdoub":4270,"Ġelectron":4271,"Ġrelatively":4272,"Ġwithdraw":4273,"Ġmaximum":4274,"Ġwashington":4275,"Ġwa":4276,"ening":4277,"Ġhunt":4278,"Ġunc":4279,"Ġcontain":4280,"Ġattended":4281,"Ġlock":4282,"Ġ1988":4283,"Ġolder":4284,"Ġtried":4285,"Ġcapture":4286,"Ġorganized":4287,"Ġlosing":4288,"Ġpattern":4289,"Ġfreeway":4290,"Ġfemales":4291,"Ġchapel":4292,"Ġnarrow":4293,"Ġadmir":4294,"Ġtransferred":4295,"Ġscholars":4296,"iber":4297,"Ġtan":4298,"ols":4299,"Ġproved":4300,"Ġorb":4301,"Ġnotable":4302,"Ġfeed":4303,"Ġspot":4304,"ension":4305,"Ġstudent":4306,"Ġextra":4307,"Ġrequire":4308,"Ġdrive":4309,"Ġmeanwhile":4310,"Ġbeyond":4311,"Ġbalt":4312,"Ġpiece":4313,"Ġomaha":4314,"Ġalabama":4315,"Ġbat":4316,"atives":4317,"Ġdur":4318,"Ġeat":4319,"ils":4320,"usion":4321,"utions":4322,"Ġcompound":4323,"Ġboat":4324,"Ġpoly":4325,"Ġagric":4326,"Ġspect":4327,"Ġcharge":4328,"Ġemph":4329,"Ġelement":4330,"Ġbelieve":4331,"Ġfunction":4332,"Ġhope":4333,"Ġcouple":4334,"Ġanimal":4335,"Ġarchaeological":4336,"Ġliterature":4337,"Ġfantas":4338,"Ġagricult":4339,"Ġdraft":4340,"Ġthr":4341,"adel":4342,"imore":4343,"Ġchair":4344,"Ġkg":4345,"ishu":4346,"Ġshel":4347,"Ġopin":4348,"Ġfollows":4349,"Ġdivided":4350,"Ġdesignated":4351,"Ġhelms":4352,"Ġresults":4353,"Ġpossibly":4354,"Ġcharts":4355,"Ġgolden":4356,"Ġbaseball":4357,"Ġinstitute":4358,"Ġintensity":4359,"Ġmogadishu":4360,"mond":4361,"rain":4362,"Ġunk":4363,"Ġdv":4364,"Ġdub":4365,"Ġdance":4366,"Ġlane":4367,"Ġshape":4368,"Ġcontent":4369,"Ġ49":4370,"Ġimages":4371,"Ġ65":4372,"Ġprime":4373,"Ġedward":4374,"Ġsimply":4375,"Ġarms":4376,"Ġ1964":4377,"Ġreturning":4378,"Ġsupporting":4379,"Ġsolo":4380,"Ġhistorian":4381,"Ġpaid":4382,"Ġstructures":4383,"Ġinnis":4384,"Ġtreaty":4385,"Ġwilhelm":4386,"Ġdetermined":4387,"Ġunkn":4388,"hold":4389,"rane":4390,"Ġdie":4391,"Ġonto":4392,"ims":4393,"Ġchor":4394,"Ġkent":4395,"Ġneut":4396,"Ġtry":4397,"Ġclar":4398,"Ġunderground":4399,"Ġcreation":4400,"Ġportion":4401,"Ġkept":4402,"Ġtechnology":4403,"Ġletter":4404,"Ġgrowing":4405,"Ġeconomic":4406,"Ġdissip":4407,"Ġequipment":4408,"Ġjoseph":4409,"uzz":4410,"Ġentrance":4411,"Ġhorses":4412,"Ġrugby":4413,"Ġemphas":4414,"where":4415,"Ġsis":4416,"Ġmd":4417,"ented":4418,"igan":4419,"use":4420,"Ġjup":4421,"Ġkore":4422,"Ġflag":4423,"Ġfilming":4424,"Ġweekly":4425,"Ġimportance":4426,"Ġargued":4427,"Ġknowledge":4428,"Ġpromotion":4429,"Ġrailway":4430,"Ġsecretary":4431,"Ġreaction":4432,"Ġmccall":4433,"rative":4434,"Ġmouth":4435,"station":4436,"Ġrih":4437,"Ġmob":4438,"oper":4439,"Ġcook":4440,"ogue":4441,"Ġplaystation":4442,"Ġcolour":4443,"Ġpreser":4444,"Ġsuppl":4445,"Ġdepth":4446,"Ġlanding":4447,"Ġpublication":4448,"Ġgrew":4449,"Ġrestaur":4450,"Ġsuggests":4451,"Ġprojects":4452,"Ġhamels":4453,"Ġargent":4454,"Ġburied":4455,"Ġcurrently":4456,"Ġbaltimore":4457,"Ġrihanna":4458,"iations":4459,"mun":4460,"tion":4461,"Ġfix":4462,"atops":4463,"Ġing":4464,"Ġpaint":4465,"Ġgang":4466,"Ġgained":4467,"acement":4468,"Ġunique":4469,"Ġweak":4470,"Ġ64":4471,"Ġbelong":4472,"Ġadvanced":4473,"Ġcausing":4474,"Ġreference":4475,"Ġcriticized":4476,"Ġvolume":4477,"Ġescape":4478,"Ġorders":4479,"Ġbreeding":4480,"Ġwebsite":4481,"kare":4482,"Ġcit":4483,"edkare":4484,"Ġeag":4485,"Ġrise":4486,"Ġshare":4487,"Ġcontaining":4488,"Ġclean":4489,"Ġdebuted":4490,"Ġclaims":4491,"Ġpalest":4492,"Ġhomes":4493,"Ġreaching":4494,"Ġnegative":4495,"Ġproperty":4496,"Ġdjedkare":4497,"Ġjupiter":4498,"lings":4499,"rid":4500,"tv":4501,"wide":4502,"Ġtheory":4503,"Ġsor":4504,"Ġdun":4505,"Ġdeploy":4506,"Ġchos":4507,"Ġvic":4508,"Ġenemy":4509,"asty":4510,"claim":4511,"Ġagg":4512,"Ġweight":4513,"Ġinde":4514,"Ġminer":4515,"Ġdefin":4516,"Ġobt":4517,"Ġleader":4518,"Ġ1947":4519,"Ġvisual":4520,"Ġpersonnel":4521,"Ġlabel":4522,"Ġtorres":4523,"Ġreligion":4524,"prise":4525,"Ġadministration":4526,"Ġchosen":4527,"ris":4528,"Ġahead":4529,"Ġouter":4530,"Ġbull":4531,"Ġinch":4532,"Ġhib":4533,"Ġbeaut":4534,"umes":4535,"Ġlew":4536,"Ġteacher":4537,"Ġnewly":4538,"Ġattend":4539,"Ġcolumn":4540,"Ġfrag":4541,"Ġyouth":4542,"Ġcases":4543,"Ġseems":4544,"Ġgranted":4545,"Ġabandoned":4546,"Ġdismiss":4547,"Ġprominent":4548,"Ġrejected":4549,"Ġconsecutive":4550,"Ġunknown":4551,"mitted":4552,"pose":4553,"wise":4554,"Ġsle":4555,"Ġpine":4556,"Ġdin":4557,"Ġet":4558,"Ġdeities":4559,"Ġcoal":4560,"Ġsecondary":4561,"Ġ1941":4562,"Ġvisited":4563,"Ġcommonly":4564,"Ġchapter":4565,"Ġcells":4566,"Ġencoun":4567,"white":4568,"Ġfaith":4569,"Ġcongress":4570,"Ġincreasingly":4571,"Ġscottish":4572,"Ġsettlement":4573,"Ġcrazy":4574,"Ġmultiple":4575,"Ġapplewhite":4576,"gs":4577,"met":4578,"ĠÃ":4579,"Ġur":4580,"Ġps":4581,"Ġhaven":4582,"stone":4583,"Ġrid":4584,"Ġconne":4585,"iana":4586,"Ġblock":4587,"Ġregions":4588,"Ġseconds":4589,"Ġbroke":4590,"phia":4591,"Ġ1987":4592,"Ġpassing":4593,"Ġsystems":4594,"Ġgrowth":4595,"Ġcondition":4596,"Ġmolec":4597,"Ġwounded":4598,"Ġrisk":4599,"adelphia":4600,"jo":4601,"Ġtact":4602,"rey":4603,"edar":4604,"Ġpag":4605,"Ġthing":4606,"Ġcompar":4607,"Ġmind":4608,"ancy":4609,"Ġcollect":4610,"Ġtrip":4611,"Ġkilling":4612,"Ġpromoted":4613,"Ġvolunt":4614,"Ġstrike":4615,"Ġidentified":4616,"Ġnominated":4617,"Ġegyptian":4618,"Ġsenior":4619,"Ġtemperature":4620,"Ġversions":4621,"Ġfantasy":4622,"ket":4623,"Ġaired":4624,"Ġsave":4625,"Ġselling":4626,"Ġbbc":4627,"Ġfame":4628,"Ġanonymous":4629,"Ġgreek":4630,"Ġstations":4631,"Ġtrain":4632,"Ġarrest":4633,"Ġ53":4634,"Ġopposed":4635,"Ġ120":4636,"Ġ1984":4637,"Ġ1989":4638,"Ġ1972":4639,"Ġfamous":4640,"Ġroads":4641,"Ġphilos":4642,"Ġagreement":4643,"Ġproblem":4644,"Ġsnow":4645,"Ġcroatia":4646,"Ġdvd":4647,"Ġig":4648,"Ġcub":4649,"Ġfired":4650,"isc":4651,"aming":4652,"uten":4653,"ety":4654,"illa":4655,"ills":4656,"Ġtruth":4657,"astic":4658,"Ġnothing":4659,"Ġinterp":4660,"Ġ1985":4661,"Ġoperated":4662,"Ġslam":4663,"Ġglass":4664,"Ġavoid":4665,"Ġmike":4666,"Ġanimals":4667,"Ġpremier":4668,"Ġchoice":4669,"Ġindu":4670,"Ġhms":4671,"Ġtrust":4672,"Ġcompr":4673,"Ġboats":4674,"Ġserve":4675,"Ġfilmed":4676,"Ġwrites":4677,"Ġemb":4678,"Ġexplained":4679,"Ġcougar":4680,"Ġideas":4681,"Ġsubsequent":4682,"Ġcardiff":4683,"Ġpoetry":4684,"Ġdrama":4685,"Ġconfirmed":4686,"ech":4687,"fa":4688,"more":4689,"mosp":4690,"pass":4691,"Ġopt":4692,"Ġcust":4693,"Ġles":4694,"Ġatmosp":4695,"Ġherself":4696,"Ġ55":4697,"Ġinterchange":4698,"Ġgram":4699,"Ġregister":4700,"Ġconsisted":4701,"Ġmax":4702,"Ġsurvey":4703,"Ġappeal":4704,"Ġinvasion":4705,"Ġ1944":4706,"Ġgives":4707,"Ġmichigan":4708,"Ġphiladelphia":4709,"Ġode":4710,"Ġregarded":4711,"Ġcontrolled":4712,"Ġrapidly":4713,"Ġweapons":4714,"Ġfamilies":4715,"can":4716,"don":4717,"gn":4718,"lers":4719,"Ġiv":4720,"Ġaven":4721,"Ġbc":4722,"itable":4723,"icts":4724,"oms":4725,"Ġhell":4726,"Ġjon":4727,"Ġkit":4728,"umber":4729,"odon":4730,"ocked":4731,"Ġjoint":4732,"Ġactors":4733,"Ġkeats":4734,"Ġtrial":4735,"Ġswed":4736,"Ġbattalions":4737,"Ġdevot":4738,"Ġmemorial":4739,"Ġstrengt":4740,"Ġkilomet":4741,"Ġmaintained":4742,"Ġdropped":4743,"Ġpieces":4744,"Ġfailure":4745,"Ġseventh":4746,"Ġaspects":4747,"gu":4748,"mes":4749,"Ġurban":4750,"Ġsens":4751,"Ġfash":4752,"isation":4753,"Ġash":4754,"Ġrit":4755,"Ġchains":4756,"Ġkh":4757,"Ġkings":4758,"istry":4759,"Ġib":4760,"Ġmaria":4761,"Ġvert":4762,"Ġcarl":4763,"Ġhighlight":4764,"Ġphase":4765,"Ġlandfall":4766,"Ġprovince":4767,"Ġcrus":4768,"Ġpitched":4769,"Ġwilliams":4770,"Ġinjury":4771,"Ġdutch":4772,"ek":4773,"Ġai":4774,"ero":4775,"Ġfit":4776,"enge":4777,"Ġandy":4778,"roll":4779,"Ġnathan":4780,"Ġgulf":4781,"ura":4782,"Ġitaly":4783,"ighth":4784,"ieval":4785,"Ġcool":4786,"Ġresemb":4787,"Ġ43":4788,"Ġspeak":4789,"Ġbright":4790,"Ġ600":4791,"Ġgray":4792,"Ġretired":4793,"Ġsouthwest":4794,"Ġtransit":4795,"Ġsteve":4796,"Ġraid":4797,"Ġmedieval":4798,"Ġhumans":4799,"Ġbelief":4800,"Ġvalue":4801,"Ġfung":4802,"Ġcriticism":4803,"Ġbudget":4804,"Ġsoutheast":4805,"Ġcrowd":4806,"Ġsustained":4807,"hroom":4808,"nest":4809,"po":4810,"ani":4811,"Ġhin":4812,"Ġll":4813,"Ġgain":4814,"stream":4815,"Ġwhy":4816,"Ġplum":4817,"Ġabu":4818,"Ġ56":4819,"Ġfinds":4820,"Ġmushroom":4821,"Ġamericans":4822,"Ġsupply":4823,"Ġpasses":4824,"Ġsignificantly":4825,"Ġfinding":4826,"Ġvirt":4827,"Ġfacilities":4828,"Ġrecognized":4829,"Ġcreating":4830,"Ġpremi":4831,"Ġconnected":4832,"Ġsemi":4833,"Ġprepared":4834,"Ġstraight":4835,"bon":4836,"haps":4837,"heas":4838,"Ġsought":4839,"Ġbats":4840,"Ġmig":4841,"Ġgord":4842,"Ġeth":4843,"oured":4844,"Ġstock":4845,"Ġstones":4846,"irt":4847,"oty":4848,"Ġchose":4849,"Ġperhaps":4850,"render":4851,"Ġsurrender":4852,"Ġmatter":4853,"Ġconcer":4854,"Ġbasket":4855,"Ġreflect":4856,"Ġchampion":4857,"Ġpopularity":4858,"Ġprotection":4859,"Ġwalls":4860,"Ġproducers":4861,"Ġpenins":4862,"Ġscheduled":4863,"Ġnecessary":4864,"Ġintelligence":4865,"vin":4866,"rete":4867,"Ġwolf":4868,"Ġcited":4869,"Ġbru":4870,"Ġmatt":4871,"Ġdar":4872,"Ġreun":4873,"Ġchur":4874,"Ġcomic":4875,"Ġunus":4876,"Ġworship":4877,"Ġrecently":4878,"Ġreconst":4879,"Ġ46":4880,"Ġflank":4881,"Ġwars":4882,"Ġmonument":4883,"amese":4884,"Ġlaid":4885,"Ġgeneration":4886,"Ġ1981":4887,"Ġdistingu":4888,"Ġstarts":4889,"Ġmyth":4890,"heless":4891,"Ġjeff":4892,"Ġlosses":4893,"Ġnucleus":4894,"Ġtreatment":4895,"Ġvietnamese":4896,"Ġpowers":4897,"Ġpilot":4898,"bl":4899,"Ġfought":4900,"isy":4901,"Ġdated":4902,"Ġhart":4903,"Ġaltar":4904,"Ġrival":4905,"ulate":4906,"Ġye":4907,"ordin":4908,"Ġimper":4909,"izing":4910,"ographer":4911,"Ġcambod":4912,"Ġregarding":4913,"Ġemployed":4914,"clusion":4915,"Ġgradually":4916,"Ġlieuten":4917,"Ġthunderbirds":4918,"ees":4919,"ki":4920,"Ġice":4921,"inity":4922,"Ġfresh":4923,"Ġell":4924,"Ġrating":4925,"Ġconsequ":4926,"Ġcomes":4927,"appe":4928,"Ġarc":4929,"Ġadapt":4930,"Ġcontained":4931,"Ġ41":4932,"Ġ700":4933,"Ġends":4934,"Ġdistribution":4935,"Ġ1939":4936,"Ġprompt":4937,"Ġcorre":4938,"Ġhousehold":4939,"Ġmotion":4940,"Ġsafety":4941,"Ġsusp":4942,"Ġmartin":4943,"Ġfrequently":4944,"Ġconservation":4945,"Ġpolicy":4946,"heastern":4947,"lines":4948,"mal":4949,"yan":4950,"Ġic":4951,"Ġoh":4952,"Ġsund":4953,"Ġcin":4954,"Ġfict":4955,"Ġnaz":4956,"Ġgas":4957,"Ġrub":4958,"Ġvice":4959,"Ġrod":4960,"Ġtrail":4961,"Ġclou":4962,"Ġadj":4963,"Ġcontributed":4964,"Ġattorn":4965,"Ġworldwide":4966,"Ġpho":4967,"airs":4968,"Ġ1942":4969,"Ġserving":4970,"Ġcollected":4971,"Ġchel":4972,"Ġallows":4973,"Ġimprove":4974,"Ġexec":4975,"Ġathletes":4976,"Ġgradu":4977,"Ġdegree":4978,"Ġoxford":4979,"Ġhabitat":4980,"Ġbottom":4981,"Ġgordon":4982,"Ġpeninsula":4983,"bre":4984,"Ġtel":4985,"onent":4986,"Ġdial":4987,"Ġnba":4988,"Ġthin":4989,"amic":4990,"olved":4991,"Ġring":4992,"Ġneither":4993,"illo":4994,"Ġplate":4995,"Ġshaped":4996,"Ġleon":4997,"Ġunsu":4998,"Ġtra":4999,"Ġjoin":5000,"Ġgameplay":5001,"Ġminim":5002,"Ġwins":5003,"Ġconcrete":5004,"Ġ130":5005,"Ġ1918":5006,"Ġturner":5007,"Ġdemocr":5008,"Ġeffective":5009,"Ġpurpose":5010,"Ġchampionships":5011,"Ġsurviv":5012,"Ġentirely":5013,"Ġimproved":5014,"Ġcommissioned":5015,"Ġeconomy":5016,"Ġwitness":5017,"Ġdynasty":5018,"Ġconstitution":5019,"Ġlisa":5020,"Ġlieutenant":5021,"iro":5022,"Ġau":5023,"Ġcart":5024,"Ġdry":5025,"iday":5026,"thur":5027,"Ġvul":5028,"Ġsud":5029,"Ġshar":5030,"Ġboise":5031,"Ġboston":5032,"Ġmario":5033,"Ġ54":5034,"ansas":5035,"Ġmuslim":5036,"Ġsimple":5037,"Ġsetting":5038,"Ġ1968":5039,"Ġ1969":5040,"Ġsentence":5041,"Ġdrawn":5042,"Ġearthqu":5043,"Ġelectric":5044,"ushing":5045,"Ġreasons":5046,"Ġslowly":5047,"Ġeuropium":5048,"Ġlewis":5049,"Ġkilometres":5050,"Ġfashion":5051,"uff":5052,"Ġbern":5053,"Ġdates":5054,"Ġhun":5055,"Ġgully":5056,"Ġegg":5057,"Ġstages":5058,"iments":5059,"Ġjain":5060,"aine":5061,"sea":5062,"Ġcooper":5063,"ips":5064,"Ġfear":5065,"Ġ57":5066,"Ġcanal":5067,"Ġdecade":5068,"Ġ179":5069,"Ġ1975":5070,"Ġexpanded":5071,"Ġplanning":5072,"Ġprograms":5073,"Ġmacle":5074,"Ġrussian":5075,"Ġastron":5076,"Ġchemical":5077,"Ġroughly":5078,"Ġexpedition":5079,"Ġchorus":5080,"mission":5081,"Ġtail":5082,"Ġsort":5083,"Ġsie":5084,"Ġwrest":5085,"Ġbit":5086,"Ġbes":5087,"Ġfellow":5088,"Ġdw":5089,"Ġdota":5090,"Ġhip":5091,"Ġlu":5092,"iring":5093,"Ġitems":5094,"Ġseg":5095,"Ġconve":5096,"Ġjes":5097,"Ġcole":5098,"Ġallied":5099,"Ġaml":5100,"Ġpope":5101,"Ġupd":5102,"Ġevita":5103,"Ġcenturies":5104,"Ġkne":5105,"Ġframe":5106,"Ġ800":5107,"hips":5108,"Ġincident":5109,"Ġportra":5110,"Ġ1965":5111,"Ġ1974":5112,"Ġoccas":5113,"Ġevening":5114,"Ġauthors":5115,"Ġmassive":5116,"Ġturk":5117,"Ġtransportation":5118,"Ġgirls":5119,"Ġeyes":5120,"Ġnormal":5121,"Ġnegot":5122,"Ġoccupied":5123,"Ġoccasionally":5124,"Ġlibr":5125,"Ġvolunte":5126,"Ġaston":5127,"Ġmand":5128,"ads":5129,"thy":5130,"Ġsector":5131,"Ġkar":5132,"berg":5133,"Ġcontest":5134,"Ġsole":5135,"rence":5136,"Ġspeaking":5137,"Ġfloor":5138,"Ġquite":5139,"Ġeditor":5140,"Ġdecades":5141,"Ġjuan":5142,"Ġsteam":5143,"ancing":5144,"Ġdeaths":5145,"Ġadditionally":5146,"Ġsuccessfully":5147,"Ġviolence":5148,"Ġdollar":5149,"Ġexperienced":5150,"Ġmunicip":5151,"Ġkhanh":5152,"Ġchurches":5153,"Ġfictional":5154,"Ġwides":5155,"Ġbh":5156,"Ġluc":5157,"Ġeld":5158,"Ġjump":5159,"uli":5160,"Ġkir":5161,"Ġfirm":5162,"Ġpound":5163,"Ġengaged":5164,"Ġque":5165,"Ġsimon":5166,"Ġdidn":5167,"azz":5168,"Ġrome":5169,"Ġtroub":5170,"Ġresear":5171,"Ġdaniel":5172,"Ġjamal":5173,"Ġpurchased":5174,"Ġjurc":5175,"Ġwedding":5176,"Ġavenue":5177,"cription":5178,"ike":5179,"yson":5180,"Ġtall":5181,"Ġbart":5182,"Ġbrian":5183,"Ġfine":5184,"ano":5185,"Ġdrew":5186,"asure":5187,"iced":5188,"Ġnc":5189,"lyss":5190,"lywood":5191,"Ġisab":5192,"Ġkits":5193,"ella":5194,"Ġprefer":5195,"Ġremn":5196,"Ġ96":5197,"Ġterror":5198,"Ġ164":5199,"Ġ1946":5200,"Ġgreg":5201,"Ġprotagon":5202,"Ġpolitics":5203,"Ġdeclined":5204,"Ġdetails":5205,"Ġmotor":5206,"Ġbegun":5207,"borough":5208,"Ġlearned":5209,"Ġplatform":5210,"Ġtennyson":5211,"Ġbriefly":5212,"Ġsweet":5213,"Ġcategory":5214,"Ġpermanent":5215,"Ġattorney":5216,"cop":5217,"dh":5218,"hire":5219,"pet":5220,"Ġsell":5221,"Ġfal":5222,"orter":5223,"Ġdubl":5224,"Ġlam":5225,"Ġstore":5226,"Ġjos":5227,"Ġmoves":5228,"odes":5229,"Ġexclus":5230,"Ġrecre":5231,"Ġmarine":5232,"Ġdisappe":5233,"Ġinterior":5234,"Ġ73":5235,"Ġaccident":5236,"Ġ95":5237,"Ġliu":5238,"Ġgross":5239,"Ġpublisher":5240,"Ġguide":5241,"Ġsimone":5242,"Ġadding":5243,"Ġperforming":5244,"Ġzone":5245,"Ġelimin":5246,"Ġorganiz":5247,"Ġbasin":5248,"Ġindustrial":5249,"Ġsettlers":5250,"Ġhonour":5251,"Ġliterary":5252,"Ġapplied":5253,"Ġthirty":5254,"Ġalternative":5255,"Ġiguan":5256,"Ġimperial":5257,"Ġdublin":5258,"ez":5259,"iences":5260,"Ġ#":5261,"Ġmap":5262,"alle":5263,"Ġhired":5264,"Ġgab":5265,"Ġkang":5266,"Ġneck":5267,"Ġroutes":5268,"ichol":5269,"Ġarsen":5270,"Ġadap":5271,"oked":5272,"aret":5273,"Ġsoft":5274,"Ġformula":5275,"Ġ61":5276,"Ġacres":5277,"Ġlongest":5278,"Ġ1966":5279,"Ġ1952":5280,"Ġjustice":5281,"Ġcrime":5282,"Ġ1919":5283,"Ġcorpor":5284,"Ġpossibility":5285,"Ġfields":5286,"Ġsolid":5287,"Ġbillion":5288,"Ġexperiment":5289,"Ġcalc":5290,"Ġholy":5291,"Ġarrival":5292,"Ġdiscovery":5293,"chers":5294,"Ġhappy":5295,"Ġparticipated":5296,"Ġaccompanied":5297,"Ġaware":5298,"Ġenjoyed":5299,"Ġresponded":5300,"Ġpaintings":5301,"Ġearthquake":5302,"oir":5303,"Ġwick":5304,"Ġfan":5305,"Ġmist":5306,"aling":5307,"Ġhat":5308,"acu":5309,"Ġheard":5310,"tery":5311,"ayer":5312,"apes":5313,"sey":5314,"ender":5315,"izes":5316,"Ġloy":5317,"Ġflu":5318,"Ġ97":5319,"Ġdeveloping":5320,"Ġoldest":5321,"Ġulyss":5322,"Ġ177":5323,"anny":5324,"oys":5325,"Ġowners":5326,"Ġheads":5327,"Ġcharacteristics":5328,"Ġ1936":5329,"Ġstret":5330,"Ġtechnical":5331,"Ġengineering":5332,"Ġbraz":5333,"Ġbrothers":5334,"Ġpainting":5335,"Ġreinforce":5336,"Ġmacleod":5337,"Ġulysses":5338,"kin":5339,"pread":5340,"Ġsail":5341,"Ġbin":5342,"Ġones":5343,"Ġron":5344,"Ġisl":5345,"istan":5346,"Ġros":5347,"Ġrot":5348,"abb":5349,"Ġgoes":5350,"Ġimpos":5351,"Ġfount":5352,"Ġcharter":5353,"Ġconsists":5354,"Ġpopulations":5355,"Ġ1973":5356,"Ġlasted":5357,"Ġreviewers":5358,"Ġyounger":5359,"Ġfreed":5360,"Ġcombination":5361,"Ġcoastal":5362,"Ġdougl":5363,"Ġtypical":5364,"chest":5365,"Ġbiography":5366,"Ġfunding":5367,"Ġdominated":5368,"Ġexistence":5369,"Ġsynt":5370,"Ġthousands":5371,"Ġreserve":5372,"Ġanthony":5373,"Ġturkish":5374,"Ġwidespread":5375,"mark":5376,"eda":5377,"Ġfel":5378,"Ġfuel":5379,"adow":5380,"usal":5381,"Ġisol":5382,"Ġchance":5383,"ocated":5384,"ffman":5385,"Ġbrid":5386,"Ġquot":5387,"Ġsubmar":5388,"Ġguy":5389,"Ġcalls":5390,"Ġdepos":5391,"Ġdepict":5392,"Ġ1967":5393,"ccessful":5394,"Ġanything":5395,"Ġmissing":5396,"Ġturning":5397,"Ġclubs":5398,"Ġmountains":5399,"Ġglob":5400,"Ġreality":5401,"Ġiniti":5402,"Ġeverything":5403,"Ġcompetitions":5404,"Ġclosely":5405,"Ġcaught":5406,"Ġcardinal":5407,"Ġstopped":5408,"Ġexisting":5409,"Ġweakened":5410,"Ġunsuccessful":5411,"come":5412,"ox":5413,"rum":5414,"Ġsap":5415,"Ġcd":5416,"Ġcry":5417,"isers":5418,"aser":5419,"Ġlic":5420,"Ġgw":5421,"Ġjers":5422,"Ġcham":5423,"rien":5424,"Ġmoon":5425,"resp":5426,"Ġroof":5427,"Ġlear":5428,"Ġusa":5429,"Ġmarl":5430,"Ġnoisy":5431,"Ġ62":5432,"Ġassass":5433,"Ġbrook":5434,"Ġcapable":5435,"Ġphill":5436,"Ġdecre":5437,"Ġbelt":5438,"Ġ110":5439,"Ġprovides":5440,"Ġserves":5441,"Ġmagic":5442,"Ġgreatly":5443,"Ġclassic":5444,"Ġgrey":5445,"Ġ1914":5446,"Ġlegacy":5447,"Ġsimilarly":5448,"Ġdecline":5449,"Ġsumm":5450,"Ġtravell":5451,"Ġholding":5452,"shire":5453,"Ġcreator":5454,"Ġrules":5455,"Ġderived":5456,"Ġassistant":5457,"Ġtells":5458,"Ġopportunity":5459,"Ġceremony":5460,"Ġsunday":5461,"iqu":5462,"obe":5463,"Ġtas":5464,"Ġtask":5465,"Ġari":5466,"Ġbought":5467,"Ġinner":5468,"Ġpric":5469,"Ġmit":5470,"Ġhung":5471,"Ġgil":5472,"Ġalbert":5473,"Ġseat":5474,"Ġjazz":5475,"Ġorchest":5476,"Ġcontrib":5477,"Ġresident":5478,"ibbe":5479,"Ġgrade":5480,"Ġparalle":5481,"Ġcaribbe":5482,"Ġ85":5483,"Ġlocations":5484,"Ġsupposed":5485,"Ġreceiving":5486,"Ġinvited":5487,"Ġheaded":5488,"Ġstoryline":5489,"Ġpalace":5490,"Ġtechnique":5491,"Ġreading":5492,"Ġsufficient":5493,"Ġinnings":5494,"Ġcruiser":5495,"Ġrolling":5496,"Ġhornung":5497,"Ġfilled":5498,"Ġvehicles":5499,"Ġinstrument":5500,"Ġdissipated":5501,"Ġrestaurant":5502,"Ġchelsea":5503,"Ġiguanodon":5504,"Ġdouglas":5505,"Ġcaribbean":5506,"ex":5507,"rig":5508,"sw":5509,"set":5510,"ule":5511,"Ġcrop":5512,"ato":5513,"Ġmine":5514,"amy":5515,"Ġasia":5516,"Ġrural":5517,"pty":5518,"Ġperry":5519,"Ġevil":5520,"Ġoverse":5521,"iverse":5522,"Ġbron":5523,"Ġ71":5524,"Ġmonarch":5525,"Ġdoor":5526,"Ġmaeda":5527,"Ġsuppor":5528,"Ġreceive":5529,"Ġ1945":5530,"Ġ1971":5531,"Ġdescribing":5532,"Ġstew":5533,"Ġclassified":5534,"Ġways":5535,"Ġcourts":5536,"pective":5537,"Ġdestiny":5538,"ographic":5539,"Ġviewed":5540,"Ġnovels":5541,"Ġgeorg":5542,"Ġfalls":5543,"Ġsurvived":5544,"Ġhills":5545,"Ġcolonel":5546,"Ġcolonial":5547,"Ġrailroad":5548,"Ġaccompl":5549,"Ġestablishment":5550,"Ġconstantine":5551,"Ġratings":5552,"Ġsymbol":5553,"Ġhibari":5554,"hu":5555,"pson":5556,"ruli":5557,"win":5558,"Ġaim":5559,"Ġsin":5560,"Ġsara":5561,"Ġpack":5562,"Ġmtv":5563,"arian":5564,"rol":5565,"Ġrene":5566,"iled":5567,"utz":5568,"Ġvon":5569,"Ġvision":5570,"Ġshared":5571,"Ġexpos":5572,"Ġtrying":5573,"Ġboys":5574,"Ġmarsh":5575,"Ġ59":5576,"Ġacid":5577,"Ġdoct":5578,"Ġwhereas":5579,"Ġentry":5580,"Ġ1982":5581,"Ġdownlo":5582,"Ġevergl":5583,"Ġstev":5584,"Ġromani":5585,"Ġgeorgian":5586,"Ġflights":5587,"Ġinspir":5588,"Ġalien":5589,"Ġqedar":5590,"Ġmortal":5591,"Ġconverted":5592,"Ġacquired":5593,"Ġboliv":5594,"Ġteaching":5595,"Ġrepeated":5596,"Ġeagle":5597,"Ġastronom":5598,"Ġlibrary":5599,"Ġeverglades":5600,"bie":5601,"Ġhug":5602,"Ġeighth":5603,"entially":5604,"Ġalle":5605,"utation":5606,"Ġrio":5607,"Ġken":5608,"Ġkur":5609,"Ġmoz":5610,"iston":5611,"aked":5612,"Ġunp":5613,"essed":5614,"Ġallah":5615,"Ġresist":5616,"Ġresour":5617,"Ġspacing":5618,"Ġevacu":5619,"Ġfinish":5620,"Ġlover":5621,"Ġregional":5622,"issance":5623,"Ġentering":5624,"Ġdepicted":5625,"Ġ160":5626,"Ġ1976":5627,"Ġrivers":5628,"Ġ1956":5629,"Ġ1913":5630,"Ġ1916":5631,"Ġlegend":5632,"Ġexpans":5633,"Ġturns":5634,"Ġdemand":5635,"Ġpitch":5636,"Ġwatched":5637,"Ġengineers":5638,"Ġpoems":5639,"Ġfocused":5640,"Ġbanks":5641,"Ġsubstant":5642,"Ġoslo":5643,"Ġarranged":5644,"Ġopposition":5645,"Ġrescue":5646,"Ġsucceeded":5647,"Ġhaiti":5648,"Ġfrederic":5649,"Ġelectronic":5650,"Ġopinion":5651,"Ġatmosphere":5652,"ture":5653,"hetic":5654,"Ġpuzz":5655,"Ġmir":5656,"Ġmut":5657,"Ġmerc":5658,"Ġdiam":5659,"icks":5660,"Ġlit":5661,"acity":5662,"Ġjones":5663,"Ġshore":5664,"Ġexact":5665,"Ġexerc":5666,"Ġpartners":5667,"Ġagent":5668,"Ġattached":5669,"Ġjoy":5670,"Ġ72":5671,"Ġfranch":5672,"Ġ81":5673,"Ġdefined":5674,"Ġaddress":5675,"Ġdivine":5676,"Ġ1943":5677,"Ġ175":5678,"Ġproviding":5679,"Ġprize":5680,"Ġcorresp":5681,"Ġcommunist":5682,"bridge":5683,"Ġpenalty":5684,"Ġvenus":5685,"Ġassistance":5686,"Ġcredited":5687,"Ġcredits":5688,"Ġmethods":5689,"Ġrhyth":5690,"Ġarticle":5691,"Ġbasketball":5692,"Ġcinem":5693,"Ġsiege":5694,"Ġknew":5695,"Ġbrazil":5696,"Ġcorrespond":5697,"fe":5698,"vo":5699,"Ġtied":5700,"Ġtable":5701,"Ġdating":5702,"Ġhan":5703,"Ġhang":5704,"Ġhits":5705,"Ġlenn":5706,"Ġnom":5707,"Ġgate":5708,"agre":5709,"iance":5710,"Ġamate":5711,"okes":5712,"Ġdesire":5713,"Ġpregn":5714,"Ġoutstanding":5715,"Ġ94":5716,"Ġ1963":5717,"Ġ112":5718,"Ġ250":5719,"Ġexplos":5720,"Ġmorrison":5721,"Ġcivilian":5722,"Ġprofessor":5723,"Ġholds":5724,"Ġcolonies":5725,"Ġseparated":5726,"Ġrebu":5727,"Ġrenamed":5728,"Ġrangers":5729,"Ġexamples":5730,"Ġrarely":5731,"Ġdelivered":5732,"Ġcontroversy":5733,"Ġbenef":5734,"Ġsupplies":5735,"Ġhindu":5736,"Ġphoen":5737,"Ġadapted":5738,"Ġjersey":5739,"Ġstevens":5740,"fl":5741,"jam":5742,"ya":5743,"Ġcul":5744,"Ġmul":5745,"Ġjay":5746,"anda":5747,"estone":5748,"eme":5749,"outs":5750,"Ġprey":5751,"Ġsecure":5752,"Ġremar":5753,"Ġregime":5754,"Ġ176":5755,"Ġcommanded":5756,"Ġcamps":5757,"Ġclasses":5758,"Ġcrimin":5759,"Ġaustralians":5760,"Ġprotected":5761,"apping":5762,"Ġhollywood":5763,"Ġarchaeology":5764,"Ġachieve":5765,"aska":5766,"Ġaccounts":5767,"Ġathletic":5768,"Ġutc":5769,"Ġimmig":5770,"Ġremainder":5771,"Ġindicate":5772,"Ġconsisting":5773,"Ġbradford":5774,"Ġalexander":5775,"Ġcertified":5776,"Ġcolumbia":5777,"Ġsudden":5778,"Ġfountain":5779,"jillo":5780,"rons":5781,"vis":5782,"zac":5783,"Ġcav":5784,"Ġbath":5785,"itan":5786,"Ġanzac":5787,"Ġpatt":5788,"Ġdru":5789,"Ġdock":5790,"ione":5791,"Ġonline":5792,"Ġroc":5793,"Ġuncle":5794,"Ġ77":5795,"ologists":5796,"Ġ1978":5797,"ception":5798,"Ġ1953":5799,"Ġreferences":5800,"Ġaffect":5801,"Ġoccurs":5802,"Ġintroduction":5803,"Ġfacing":5804,"Ġtests":5805,"Ġtomb":5806,"Ġmemory":5807,"Ġmaryland":5808,"Ġfeelings":5809,"Ġspecifically":5810,"Ġthreatened":5811,"Ġhearts":5812,"Ġmontana":5813,"Ġcroatian":5814,"Ġtrujillo":5815,"Ġchairman":5816,"Ġphilosop":5817,"eu":5818,"ĪĴ":5819,"Ġpap":5820,"Ġdip":5821,"ilton":5822,"Ġhear":5823,"Ġasc":5824,"imb":5825,"Ġalan":5826,"ela":5827,"Ġroxas":5828,"ighter":5829,"Ġexit":5830,"Ġleaves":5831,"ĠâĪĴ":5832,"Ġarthur":5833,"Ġfinishing":5834,"Ġsoil":5835,"ressive":5836,"issipp":5837,"Ġundert":5838,"Ġacts":5839,"ifications":5840,"Ġstudied":5841,"Ġreputation":5842,"Ġdivisions":5843,"Ġleads":5844,"Ġdisturb":5845,"Ġpassage":5846,"Ġappearing":5847,"Ġsuccessor":5848,"Ġmissions":5849,"Ġmississipp":5850,"Ġmyster":5851,"Ġromantic":5852,"Ġcommunities":5853,"Ġviews":5854,"Ġstatement":5855,"Ġwalter":5856,"Ġpurs":5857,"Ġwooden":5858,"Ġscientific":5859,"Ġproducing":5860,"Ġprede":5861,"Ġrecognition":5862,"Ġappoint":5863,"Ġdenied":5864,"Ġfeeling":5865,"Ġfavorite":5866,"Ġportrayed":5867,"Ġshooting":5868,"Ġmasters":5869,"Ġcharlie":5870,"Ġagricultural":5871,"Ġcitiz":5872,"Ġdinosaur":5873,"Ġconnection":5874,"Ġstrengthen":5875,"Ġmississippi":5876,"body":5877,"rant":5878,"ych":5879,"ati":5880,"Ġkel":5881,"agues":5882,"ifying":5883,"ardo":5884,"Ġlee":5885,"Ġworst":5886,"Ġrecru":5887,"Ġoffense":5888,"Ġwarri":5889,"Ġhoward":5890,"Ġprint":5891,"Ġsupreme":5892,"Ġstrand":5893,"Ġstrateg":5894,"Ġdiscip":5895,"Ġ1915":5896,"Ġreviewer":5897,"Ġbasic":5898,"Ġrefle":5899,"Ġseeing":5900,"Ġactivision":5901,"Ġlabour":5902,"Ġgetting":5903,"Ġbiographer":5904,"Ġhomer":5905,"Ġselect":5906,"Ġduke":5907,"Ġmaintain":5908,"Ġlords":5909,"Ġsamuel":5910,"Ġgallery":5911,"Ġpicture":5912,"Ġrifles":5913,"Ġprincipal":5914,"Ġmessage":5915,"Ġdismissed":5916,"Ġarsenal":5917,"de":5918,"kn":5919,"kins":5920,"oz":5921,"Ġsi":5922,"Ġanton":5923,"ador":5924,"Ġrand":5925,"Ġjac":5926,"ette":5927,"ules":5928,"Ġplunk":5929,"iece":5930,"Ġnoting":5931,"Ġattributed":5932,"Ġspeech":5933,"Ġcharges":5934,"Ġknots":5935,"Ġwarm":5936,"Ġ98":5937,"Ġcapacity":5938,"Ġstef":5939,"Ġsteel":5940,"Ġchess":5941,"Ġcalvert":5942,"Ġreplace":5943,"Ġchanging":5944,"Ġwatch":5945,"Ġinvolvement":5946,"Ġinterested":5947,"Ġdrawing":5948,"Ġconduct":5949,"Ġacademic":5950,"Ġdiscussed":5951,"Ġdollars":5952,"Ġenterprise":5953,"works":5954,"Ġcontinuing":5955,"Ġopponents":5956,"Ġspecimens":5957,"Ġcustom":5958,"Ġisabella":5959,"ev":5960,"town":5961,"uous":5962,"yr":5963,"Ġtheater":5964,"erog":5965,"Ġsession":5966,"Ġcos":5967,"Ġinland":5968,"esh":5969,"Ġdna":5970,"Ġdanny":5971,"Ġhind":5972,"Ġnbc":5973,"elve":5974,"Ġvary":5975,"rier":5976,"ivity":5977,"Ġplain":5978,"Ġexchange":5979,"ameter":5980,"mented":5981,"Ġtwelve":5982,"Ġsche":5983,"ogen":5984,"Ġoffers":5985,"Ġloose":5986,"Ġ66":5987,"Ġknight":5988,"Ġsoul":5989,"Ġprin":5990,"Ġ1948":5991,"Ġeliz":5992,"Ġ1917":5993,"Ġstandards":5994,"Ġholiday":5995,"oba":5996,"Ġ1890":5997,"Ġstrip":5998,"Ġruled":5999,"Ġtowers":6000,"jevo":6001,"Ġchallenge":6002,"Ġadventure":6003,"Ġwrong":6004,"Ġghost":6005,"Ġdangerous":6006,"Ġritual":6007,"Ġkitsune":6008,"Ġglobal":6009,"Ġsarajevo":6010,"Ġpredecess":6011,"mans":6012,"sp":6013,"yc":6014,"erted":6015,"Ġsight":6016,"Ġfaces":6017,"itors":6018,"Ġnone":6019,"ading":6020,"iful":6021,"Ġyank":6022,"Ġplants":6023,"opes":6024,"Ġexpect":6025,"ube":6026,"Ġpret":6027,"Ġindig":6028,"rend":6029,"Ġsomeone":6030,"attle":6031,"Ġretire":6032,"intend":6033,"Ġsigning":6034,"Ġ1979":6035,"Ġ1951":6036,"Ġcrash":6037,"Ġrocky":6038,"Ġdifficulty":6039,"Ġforests":6040,"Ġtribes":6041,"Ġstephen":6042,"Ġexception":6043,"Ġscholar":6044,"Ġguardian":6045,"Ġconsiderable":6046,"Ġvictoria":6047,"Ġninth":6048,"Ġemotional":6049,"ructure":6050,"Ġsynthes":6051,"Ġbolivar":6052,"Ġfrederick":6053,"Ġyankovic":6054,"born":6055,"ients":6056,"ni":6057,"ona":6058,"Ġcory":6059,"ena":6060,"orer":6061,"Ġdod":6062,"Ġherit":6063,"Ġraces":6064,"othes":6065,"Ġvoy":6066,"Ġenl":6067,"Ġworth":6068,"Ġmanner":6069,"Ġmarc":6070,"Ġmarks":6071,"kson":6072,"Ġjoe":6073,"Ġlanded":6074,"Ġ1961":6075,"Ġ1954":6076,"Ġbreaking":6077,"Ġhistorians":6078,"Ġbrigades":6079,"Ġreplacement":6080,"Ġsuperior":6081,"Ġcrossing":6082,"Ġmode":6083,"Ġtaught":6084,"Ġrelationships":6085,"graded":6086,"Ġnomination":6087,"Ġsevent":6088,"Ġobservations":6089,"Ġsomali":6090,"Ġcandidate":6091,"Ġclarkson":6092,"Ġmozamb":6093,"Ġheritage":6094,"aire":6095,"brien":6096,"uing":6097,"Ġsanta":6098,"Ġwy":6099,"Ġmere":6100,"ingale":6101,"Ġnas":6102,"Ġreag":6103,"idden":6104,"uting":6105,"Ġconqu":6106,"Ġjif":6107,"Ġkat":6108,"Ġproceed":6109,"Ġrober":6110,"Ġlev":6111,"Ġleuk":6112,"Ġmarines":6113,"Ġpole":6114,"Ġagency":6115,"Ġwealth":6116,"Ġsecured":6117,"Ġ69":6118,"Ġgrav":6119,"Ġaccur":6120,"Ġ87":6121,"Ġproduct":6122,"ropri":6123,"Ġdepend":6124,"Ġsimps":6125,"Ġtransform":6126,"Ġestate":6127,"Ġcampb":6128,"Ġ1937":6129,"Ġbelieves":6130,"Ġnightingale":6131,"Ġnether":6132,"Ġdestroyers":6133,"Ġrooms":6134,"Ġwilde":6135,"Ġsubstit":6136,"Ġjerusal":6137,"Ġbringing":6138,"Ġadults":6139,"Ġdocumentary":6140,"Ġskye":6141,"Ġintersection":6142,"Ġpicked":6143,"Ġbono":6144,"Ġrecommended":6145,"Ġfrancisco":6146,"Ġfungus":6147,"Ġamateur":6148,"Ġjifna":6149,"Ġroberts":6150,"Ġsimpsons":6151,"Ġjerusalem":6152,"eenth":6153,"ns":6154,"named":6155,"rations":6156,"theless":6157,"rets":6158,"Ġba":6159,"itled":6160,"Ġdro":6161,"Ġlad":6162,"Ġgone":6163,"Ġsections":6164,"Ġpros":6165,"eller":6166,"Ġpartial":6167,"Ġspin":6168,"ultane":6169,"Ġbrand":6170,"Ġgenre":6171,"Ġreleg":6172,"Ġsimultane":6173,"Ġmissed":6174,"Ġ1955":6175,"Ġclassical":6176,"Ġlegs":6177,"awa":6178,"Ġdemol":6179,"Ġarchb":6180,"Ġstreets":6181,"Ġsword":6182,"Ġnevertheless":6183,"Ġhamilton":6184,"Ġpursu":6185,"Ġsurviving":6186,"Ġterritories":6187,"Ġlanguages":6188,"Ġlaunch":6189,"Ġmulti":6190,"Ġolympics":6191,"Ġconcerns":6192,"Ġwatershed":6193,"Ġleadership":6194,"Ġrifle":6195,"Ġwindows":6196,"Ġsplit":6197,"Ġextremely":6198,"Ġadams":6199,"Ġargentina":6200,"ĠÃĹ":6201,"Ġmunicipal":6202,"Ġorganizations":6203,"Ġlearning":6204,"30":6205,"crib":6206,"mel":6207,"och":6208,"water":6209,"Ġtend":6210,"Ġtank":6211,"Ġsang":6212,"Ġsons":6213,"real":6214,"Ġbure":6215,"Ġmis":6216,"Ġgather":6217,"Ġech":6218,"aments":6219,"Ġrum":6220,"Ġ1900":6221,"uma":6222,"istol":6223,"Ġexisted":6224,"pton":6225,"avia":6226,"Ġclay":6227,"Ġteeth":6228,"Ġmarg":6229,"Ġreserv":6230,"Ġparties":6231,"wealth":6232,"Ġconsum":6233,"Ġshowing":6234,"Ġdistributed":6235,"Ġ1958":6236,"Ġtries":6237,"Ġmyc":6238,"Ġlisten":6239,"Ġcommonwealth":6240,"Ġapproached":6241,"Ġheaven":6242,"engers":6243,"Ġdetailed":6244,"Ġdiameter":6245,"Ġruler":6246,"Ġtalk":6247,"Ġancest":6248,"Ġbanai":6249,"Ġsurrounded":6250,"Ġabsor":6251,"Ġarrangement":6252,"Ġemerged":6253,"rupt":6254,"Ġencouraged":6255,"Ġcompounds":6256,"ranean":6257,"Ġcloud":6258,"Ġchamber":6259,"burg":6260,"gie":6261,"iants":6262,"nell":6263,"Ġax":6264,"Ġwants":6265,"Ġpage":6266,"Ġdim":6267,"Ġhoc":6268,"Ġgiant":6269,"acent":6270,"Ġstem":6271,"ider":6272,"verse":6273,"ays":6274,"Ġjum":6275,"eman":6276,"Ġyan":6277,"Ġroger":6278,"Ġfiring":6279,"usted":6280,"Ġdisapp":6281,"Ġsongwrit":6282,"Ġ79":6283,"Ġcarter":6284,"Ġcounties":6285,"Ġarmor":6286,"Ġ1949":6287,"Ġ1977":6288,"Ġgerard":6289,"Ġtriple":6290,"Ġvideos":6291,"Ġconstruct":6292,"Ġstream":6293,"Ġattempting":6294,"Ġcrossed":6295,"Ġsuffering":6296,"Ġregularly":6297,"Ġinstitutions":6298,"Ġnorman":6299,"Ġimmediate":6300,"Ġhoped":6301,"Ġclimate":6302,"Ġbehavi":6303,"Ġlbw":6304,"Ġtunnel":6305,"Ġadmiral":6306,"Ġunusual":6307,"Ġfreedom":6308,"Ġisolated":6309,"Ġinspiration":6310,"Ġlennon":6311,"ares":6312,"kes":6313,"ta":6314,"Ġtig":6315,"Ġtales":6316,"inals":6317,"Ġori":6318,"Ġsessions":6319,"Ġcens":6320,"Ġanne":6321,"Ġpione":6322,"Ġml":6323,"Ġhud":6324,"Ġgra":6325,"entions":6326,"iles":6327,"Ġryan":6328,"Ġprose":6329,"Ġorn":6330,"abeth":6331,"ava":6332,"Ġherge":6333,"Ġscrap":6334,"Ġpointed":6335,"Ġgoffman":6336,"Ġflash":6337,"Ġblocks":6338,"Ġassumed":6339,"Ġverse":6340,"Ġ121":6341,"Ġdesignation":6342,"Ġowner":6343,"Ġannivers":6344,"Ġimple":6345,"Ġvisible":6346,"Ġpossession":6347,"Ġfootage":6348,"Ġlaws":6349,"Ġstrongly":6350,"Ġstatistics":6351,"Ġdetail":6352,"Ġtreated":6353,"Ġveget":6354,"Ġconvoy":6355,"ombat":6356,"Ġidentity":6357,"Ġadmitted":6358,"Ġsequel":6359,"Ġkilmer":6360,"Ġprotests":6361,"Ġduties":6362,"Ġhundreds":6363,"Ġjaneiro":6364,"Ġindeed":6365,"Ġcrusad":6366,"Ġreunion":6367,"Ġreconstruction":6368,"Ġportrait":6369,"Ġprotagonist":6370,"Ġinitiative":6371,"Ġsaprang":6372,"Ġresources":6373,"Ġexpansion":6374,"Ġfranchise":6375,"Ġanniversary":6376,"fri":6377,"gas":6378,"hi":6379,"iot":6380,"Ġtie":6381,"Ġace":6382,"Ġsad":6383,"Ġske":6384,"Ġwic":6385,"Ġwimb":6386,"Ġcraft":6387,"Ġbce":6388,"Ġbert":6389,"Ġfern":6390,"ala":6391,"Ġnap":6392,"Ġhem":6393,"ussion":6394,"Ġalph":6395,"umst":6396,"Ġshop":6397,"Ġintention":6398,"Ġreconna":6399,"Ġaged":6400,"Ġmeets":6401,"Ġindicated":6402,"Ġfled":6403,"Ġprerog":6404,"Ġwinner":6405,"Ġretreat":6406,"Ġairline":6407,"Ġtransition":6408,"Ġmusicians":6409,"Ġ1983":6410,"ledon":6411,"Ġcompletion":6412,"Ġmedal":6413,"Ġtrials":6414,"Ġinternal":6415,"Ġgodd":6416,"aws":6417,"Ġapproved":6418,"Ġeasily":6419,"Ġlawton":6420,"Ġdebate":6421,"Ġcycle":6422,"Ġcoup":6423,"Ġequival":6424,"Ġcamera":6425,"Ġcircumst":6426,"onica":6427,"Ġescort":6428,"Ġconcerned":6429,"Ġattracted":6430,"Ġpleasure":6431,"Ġspecimen":6432,"Ġwearing":6433,"Ġcabin":6434,"Ġfixed":6435,"Ġconcerts":6436,"Ġeggs":6437,"Ġimposs":6438,"Ġgeorgia":6439,"Ġwimbledon":6440,"Ġreconnaissance":6441,"eor":6442,"ycl":6443,"Ġtu":6444,"eds":6445,"Ġblow":6446,"anz":6447,"orous":6448,"Ġlap":6449,"adu":6450,"Ġrated":6451,"ceived":6452,"Ġshakes":6453,"Ġserial":6454,"Ġpool":6455,"Ġmuscar":6456,"Ġaccused":6457,"Ġrecordings":6458,"Ġparks":6459,"Ġministry":6460,"Ġackn":6461,"Ġpublishing":6462,"Ġwilling":6463,"Ġstarling":6464,"Ġartific":6465,"Ġmeteor":6466,"Ġdestruction":6467,"Ġeffectively":6468,"Ġjean":6469,"Ġinfluences":6470,"Ġcomposer":6471,"Ġlooked":6472,"Ġfalling":6473,"Ġsettled":6474,"Ġtraveled":6475,"Ġcambridge":6476,"coming":6477,"Ġpractices":6478,"Ġinstitution":6479,"Ġchoir":6480,"Ġrichardson":6481,"Ġdramatic":6482,"Ġrhodes":6483,"Ġsomalia":6484,"Ġterminus":6485,"Ġincorporated":6486,"Ġdoubt":6487,"Ġkorean":6488,"Ġadjacent":6489,"Ġqueens":6490,"Ġremnants":6491,"Ġdownload":6492,"Ġbehaviour":6493,"Ġacknow":6494,"bur":6495,"cy":6496,"cia":6497,"mod":6498,"Ġul":6499,"Ġts":6500,"inn":6501,"Ġsid":6502,"Ġwings":6503,"Ġaniston":6504,"Ġpav":6505,"asc":6506,"Ġheat":6507,"Ġkombat":6508,"Ġvent":6509,"Ġshots":6510,"Ġintense":6511,"Ġafterwards":6512,"Ġrecalled":6513,"Ġpartly":6514,"Ġages":6515,"Ġmega":6516,"Ġweb":6517,"Ġpreced":6518,"Ġsomewh":6519,"Ġ91":6520,"Ġ99":6521,"Ġ88":6522,"Ġeleven":6523,"Ġdecor":6524,"Ġcrest":6525,"Ġoperating":6526,"Ġkeamy":6527,"Ġstorms":6528,"Ġ1910":6529,"Ġrestoration":6530,"Ġcorp":6531,"Ġaviation":6532,"Ġvictims":6533,"Ġstands":6534,"Ġsolar":6535,"Ġpitcher":6536,"Ġdetect":6537,"Ġ1909":6538,"Ġdriving":6539,"Ġhyp":6540,"Ġconvention":6541,"Ġmeetings":6542,"Ġselection":6543,"Ġmeasures":6544,"Ġ1880":6545,"Ġseemed":6546,"Ġpainted":6547,"Ġgarcia":6548,"Ġautom":6549,"Ġinhabit":6550,"Ġpurchase":6551,"Ġrecovered":6552,"Ġchalleng":6553,"Ġpupils":6554,"Ġowen":6555,"Ġbehavior":6556,"Ġobtained":6557,"break":6558,"Ġjesus":6559,"Ġbridges":6560,"Ġsomewhat":6561,"ection":6562,"zer":6563,"Ġtone":6564,"Ġwond":6565,"Ġcake":6566,"Ġanek":6567,"Ġpure":6568,"isis":6569,"Ġlanc":6570,"Ġbear":6571,"thosaurus":6572,"emia":6573,"Ġprohib":6574,"ivals":6575,"Ġshif":6576,"Ġtrap":6577,"Ġcob":6578,"Ġinte":6579,"Ġdesert":6580,"Ġspaces":6581,"achus":6582,"Ġflat":6583,"Ġmayor":6584,"Ġfraser":6585,"Ġdoctor":6586,"ropol":6587,"Ġpoland":6588,"Ġorigins":6589,"Ġ122":6590,"Ġjohnston":6591,"Ġgermans":6592,"Ġbarb":6593,"Ġdirectors":6594,"Ġcrisis":6595,"Ġ1931":6596,"Ġ1935":6597,"Ġ1912":6598,"Ġrepresenting":6599,"Ġcatch":6600,"Ġequal":6601,"Ġdestroyer":6602,"Ġconvin":6603,"Ġceratops":6604,"Ġtownship":6605,"Ġaudio":6606,"Ġreduce":6607,"Ġfunds":6608,"Ġhosted":6609,"Ġnormally":6610,"Ġarabic":6611,"Ġwitch":6612,"Ġlinked":6613,"Ġarchitecture":6614,"Ġcancer":6615,"Ġsculpture":6616,"Ġpreserved":6617,"Ġdistinguished":6618,"Ġresearchers":6619,"Ġcaval":6620,"Ġplunketts":6621,"Ġcorythosaurus":6622,"Ġgoddess":6623,"how":6624,"iary":6625,"nic":6626,"nos":6627,"rast":6628,"ront":6629,"Ġere":6630,"Ġtailed":6631,"Ġsher":6632,"Ġbos":6633,"Ġfia":6634,"itals":6635,"Ġnintend":6636,"Ġconvers":6637,"Ġdean":6638,"peare":6639,"abled":6640,"avada":6641,"raf":6642,"Ġdispl":6643,"Ġoverw":6644,"Ġforming":6645,"Ġflo":6646,"Ġgrace":6647,"Ġcarbon":6648,"Ġmonuments":6649,"Ġdefended":6650,"Ġincome":6651,"Ġgenerals":6652,"Ġinfrast":6653,"Ġmedium":6654,"Ġattacking":6655,"Ġ1932":6656,"Ġexpensive":6657,"Ġwaterfall":6658,"Ġira":6659,"aware":6660,"Ġtrading":6661,"Ġcovers":6662,"Ġcovering":6663,"attered":6664,"Ġcrosses":6665,"Ġprogramme":6666,"Ġcirculation":6667,"Ġstayed":6668,"Ġresponsibility":6669,"Ġjudge":6670,"going":6671,"Ġequipped":6672,"Ġopposite":6673,"Ġemerg":6674,"Ġinteraction":6675,"Ġpuppet":6676,"Ġcontroversial":6677,"Ġjunior":6678,"Ġelsewhere":6679,"Ġvessel":6680,"Ġhunting":6681,"Ġsisters":6682,"Ġcorrect":6683,"Ġmarlborough":6684,"Ġrenew":6685,"Ġrhythm":6686,"Ġarchbishop":6687,"Ġhockey":6688,"Ġprerogative":6689,"Ġshakespeare":6690,"Ġartificial":6691,"Ġnintendo":6692,"aug":6693,"dal":6694,"ipe":6695,"yon":6696,"yles":6697,"Ġtick":6698,"Ġwine":6699,"Ġcave":6700,"Ġfate":6701,"Ġinaug":6702,"Ġpushed":6703,"Ġmu":6704,"Ġdag":6705,"Ġdiet":6706,"agas":6707,"Ġproport":6708,"atech":6709,"allow":6710,"Ġfei":6711,"Ġfeather":6712,"Ġotherwise":6713,"Ġdisaster":6714,"Ġconsc":6715,"Ġembar":6716,"Ġmetall":6717,"Ġpassengers":6718,"Ġfurt":6719,"Ġ1911":6720,"Ġinternet":6721,"Ġ1921":6722,"Ġ1929":6723,"inking":6724,"Ġpatrick":6725,"Ġlawrence":6726,"Ġharm":6727,"Ġlowest":6728,"Ġpalmy":6729,"Ġburning":6730,"Ġpromote":6731,"Ġfavour":6732,"Ġaccommod":6733,"Ġdiag":6734,"Ġcollabor":6735,"Ġrebels":6736,"Ġvoted":6737,"Ġthrowing":6738,"Ġessential":6739,"Ġlegislation":6740,"Ġstanley":6741,"hews":6742,"Ġmobile":6743,"Ġbeautiful":6744,"Ġarrested":6745,"Ġelder":6746,"Ġparallel":6747,"Ġsupporters":6748,"Ġdiamond":6749,"Ġnetherlands":6750,"Ġimpossible":6751,"no":6752,"tw":6753,"yard":6754,"Ġciting":6755,"Ġceme":6756,"Ġbone":6757,"Ġboss":6758,"atures":6759,"itated":6760,"any":6761,"Ġmant":6762,"Ġhi":6763,"Ġlat":6764,"Ġnichol":6765,"Ġgates":6766,"olay":6767,"uscript":6768,"Ġcomments":6769,"Ġexha":6770,"oca":6771,"Ġmanuscript":6772,"oking":6773,"anger":6774,"Ġearl":6775,"Ġcharity":6776,"Ġunderstand":6777,"Ġunderstanding":6778,"Ġ82":6779,"Ġacclaim":6780,"Ġdefences":6781,"Ġretained":6782,"Ġsubt":6783,"Ġ162":6784,"Ġ1962":6785,"Ġreturns":6786,"Ġadvis":6787,"Ġhelmet":6788,"Ġraise":6789,"Ġ1959":6790,"Ġ1938":6791,"Ġchen":6792,"Ġgeoff":6793,"Ġvillages":6794,"Ġpitman":6795,"Ġwalk":6796,"Ġinvolving":6797,"Ġpraise":6798,"Ġatlanta":6799,"Ġdifficulties":6800,"Ġtribute":6801,"Ġsatur":6802,"Ġobjects":6803,"Ġintensified":6804,"Ġabsol":6805,"Ġobservatory":6806,"Ġpanel":6807,"Ġhuge":6808,"Ġcarrying":6809,"Ġhydro":6810,"Ġvessels":6811,"Ġbatsman":6812,"Ġcambodia":6813,"Ġoccasions":6814,"Ġdoctr":6815,"Ġcriminal":6816,"Ġstefani":6817,"Ġelizabeth":6818,"Ġfernand":6819,"Ġequivalent":6820,"Ġcemetery":6821,"cru":6822,"ext":6823,"wich":6824,"Ġeric":6825,"Ġtale":6826,"Ġoak":6827,"Ġsed":6828,"Ġsunk":6829,"Ġsulf":6830,"rec":6831,"Ġcot":6832,"Ġcbs":6833,"eness":6834,"Ġansw":6835,"Ġpir":6836,"Ġpink":6837,"Ġheli":6838,"terbury":6839,"Ġsees":6840,"Ġnotably":6841,"Ġboom":6842,"Ġcontext":6843,"Ġrecur":6844,"Ġcommitted":6845,"Ġcanterbury":6846,"Ġ74":6847,"Ġparish":6848,"Ġrepr":6849,"Ġmediter":6850,"Ġslide":6851,"Ġconfeder":6852,"Ġlatex":6853,"Ġstreak":6854,"Ġtemples":6855,"Ġperiods":6856,"Ġmoral":6857,"Ġcauses":6858,"Ġsounds":6859,"Ġdefeating":6860,"Ġhoriz":6861,"Ġlimit":6862,"Ġneeds":6863,"Ġfallen":6864,"Ġvoiced":6865,"Ġnarrative":6866,"pecies":6867,"Ġcollaps":6868,"Ġreveals":6869,"Ġhousing":6870,"Ġaerith":6871,"Ġthousand":6872,"Ġlaboratory":6873,"Ġsaved":6874,"Ġsubspecies":6875,"Ġapparently":6876,"Ġenvironmental":6877,"Ġpalestine":6878,"Ġdemocratic":6879,"Ġsurvivors":6880,"Ġpreferred":6881,"Ġphillies":6882,"Ġoverseas":6883,"Ġresistance":6884,"Ġcitizens":6885,"Ġprincess":6886,"Ġmediterranean":6887,"fare":6888,"graf":6889,"iable":6890,"rabb":6891,"uge":6892,"rell":6893,"Ġward":6894,"onso":6895,"Ġcatech":6896,"esi":6897,"arf":6898,"alu":6899,"Ġdc":6900,"ingly":6901,"Ġhull":6902,"Ġnic":6903,"Ġready":6904,"Ġthro":6905,"illy":6906,"Ġbeet":6907,"imate":6908,"using":6909,"etime":6910,"illing":6911,"Ġshut":6912,"aboration":6913,"uda":6914,"Ġusd":6915,"Ġclo":6916,"elli":6917,"Ġmanga":6918,"Ġnov":6919,"Ġagree":6920,"ffles":6921,"Ġcanyon":6922,"Ġformally":6923,"Ġwarning":6924,"Ġconsult":6925,"Ġfollowers":6926,"Ġproductions":6927,"Ġproducts":6928,"Ġincom":6929,"cki":6930,"Ġ06":6931,"Ġ07":6932,"Ġmusician":6933,"Ġinstru":6934,"Ġ161":6935,"Ġdivor":6936,"Ġshipping":6937,"annah":6938,"Ġraffles":6939,"Ġconsiders":6940,"Ġelabor":6941,"ahl":6942,"Ġrefers":6943,"Ġbush":6944,"Ġmarkgraf":6945,"Ġsuggesting":6946,"Ġrepresents":6947,"Ġjackrabb":6948,"Ġrepresentative":6949,"Ġcriticised":6950,"Ġdoesn":6951,"Ġcloser":6952,"Ġtribut":6953,"Ġcollaboration":6954,"Ġcongreg":6955,"Ġsatis":6956,"Ġmerch":6957,"Ġvisitors":6958,"Ġabsence":6959,"Ġambass":6960,"Ġplatoon":6961,"Ġjournalist":6962,"Ġcolorado":6963,"Ġimagine":6964,"Ġproposal":6965,"Ġdeployed":6966,"Ġsleep":6967,"Ġgrammy":6968,"Ġdialogue":6969,"Ġexposure":6970,"Ġbureau":6971,"Ġdisappo":6972,"Ġfurtado":6973,"math":6974,"ras":6975,"uit":6976,"vada":6977,"Ġust":6978,"Ġtong":6979,"Ġtrop":6980,"inje":6981,"Ġoption":6982,"Ġsale":6983,"Ġwel":6984,"Ġbapt":6985,"atus":6986,"Ġpale":6987,"isms":6988,"Ġmam":6989,"esse":6990,"Ġlith":6991,"Ġnhl":6992,"Ġgib":6993,"stood":6994,"Ġstable":6995,"ola":6996,"Ġalter":6997,"otic":6998,"Ġdeem":6999,"Ġsholay":7000,"arts":7001,"Ġtwin":7002,"Ġaftermath":7003,"Ġamino":7004,"Ġremember":7005,"Ġthereaf":7006,"Ġ93":7007,"Ġbuck":7008,"Ġsurpr":7009,"Ġpoll":7010,"Ġdepending":7011,"Ġ166":7012,"Ġextent":7013,"ullen":7014,"Ġuniversal":7015,"Ġcommunications":7016,"Ġskull":7017,"bound":7018,"Ġnetworks":7019,"Ġpredators":7020,"Ġstationed":7021,"Ġdominican":7022,"Ġpoorly":7023,"Ġrepublican":7024,"Ġranges":7025,"Ġdisplays":7026,"Ġmoments":7027,"Ġensure":7028,"Ġrecovery":7029,"Ġdrums":7030,"Ġvehicle":7031,"Ġsacred":7032,"Ġspiritual":7033,"Ġkrak":7034,"Ġpsych":7035,"Ġinterpret":7036,"Ġconvection":7037,"Ġtrouble":7038,"Ġsubmarine":7039,"Ġmuscaria":7040,"Ġsaturday":7041,"Ġthereafter":7042,"eper":7043,"zen":7044,"Ġsaves":7045,"Ġwet":7046,"Ġcater":7047,"Ġcape":7048,"Ġbaker":7049,"Ġfing":7050,"Ġpunt":7051,"esco":7052,"Ġhou":7053,"Ġlose":7054,"Ġlists":7055,"Ġnur":7056,"Ġnurs":7057,"lying":7058,"Ġalf":7059,"owie":7060,"umin":7061,"aka":7062,"Ġcoins":7063,"Ġteen":7064,"Ġloan":7065,"Ġverte":7066,"Ġparas":7067,"Ġ89":7068,"Ġentitled":7069,"Ġappropri":7070,"Ġ05":7071,"poses":7072,"Ġextension":7073,"Ġuseful":7074,"Ġannually":7075,"Ġmaggie":7076,"Ġchildhood":7077,"Ġexpand":7078,"Ġavo":7079,"Ġposted":7080,"Ġradiation":7081,"Ġhob":7082,"Ġeccl":7083,"Ġrepresentatives":7084,"Ġinfluential":7085,"Ġmodels":7086,"Ġmodified":7087,"encies":7088,"Ġpurposes":7089,"Ġfifa":7090,"Ġdriven":7091,"Ġmexican":7092,"Ġtalking":7093,"Ġsituated":7094,"Ġinjuries":7095,"Ġwithdrew":7096,"Ġcorner":7097,"Ġgarden":7098,"Ġopportunities":7099,"Ġexcavation":7100,"Ġadvertising":7101,"Ġorbit":7102,"Ġthrone":7103,"iques":7104,"Ġdipl":7105,"Ġsimultaneously":7106,"Ġreservoir":7107,"Ġoverwhel":7108,"Ġinfrastructure":7109,"ef":7110,"hm":7111,"rates":7112,"rator":7113,"ses":7114,"sch":7115,"vn":7116,"vati":7117,"zz":7118,"Ġtip":7119,"Ġtight":7120,"Ġanime":7121,"Ġpier":7122,"Ġandre":7123,"Ġhok":7124,"icop":7125,"lete":7126,"Ġforb":7127,"igation":7128,"Ġrates":7129,"Ġseas":7130,"Ġjenn":7131,"Ġsuic":7132,"apers":7133,"Ġplane":7134,"Ġshark":7135,"Ġexcess":7136,"Ġuns":7137,"ishment":7138,"Ġclock":7139,"Ġammun":7140,"Ġago":7141,"Ġspoke":7142,"Ġlob":7143,"Ġ63":7144,"mann":7145,"Ġengines":7146,"Ġnorway":7147,"Ġparvati":7148,"Ġactual":7149,"Ġ900":7150,"Ġwritings":7151,"Ġgenerated":7152,"Ġoriginated":7153,"Ġinstalled":7154,"Ġbarker":7155,"Ġhelicop":7156,"Ġstead":7157,"Ġrestrict":7158,"Ġblacks":7159,"Ġeasy":7160,"Ġ1928":7161,"Ġsugar":7162,"Ġpatron":7163,"Ġhistorically":7164,"Ġsupern":7165,"Ġwatching":7166,"Ġgrounds":7167,"Ġfactors":7168,"Ġmassachus":7169,"Ġburned":7170,"Ġdriver":7171,"Ġreaders":7172,"Ġinterests":7173,"Ġdawn":7174,"onomy":7175,"Ġinformed":7176,"Ġcaes":7177,"Ġmaterials":7178,"Ġproperties":7179,"Ġhappened":7180,"Ġathletics":7181,"Ġrobin":7182,"Ġisraeli":7183,"Ġadventures":7184,"Ġseverely":7185,"Ġwrestling":7186,"Ġcircumstances":7187,"Ġammunition":7188,"Ġmassachusetts":7189,"har":7190,"rants":7191,"Ġille":7192,"heera":7193,"Ġinse":7194,"organ":7195,"Ġmail":7196,"Ġhamp":7197,"icate":7198,"Ġgary":7199,"ilst":7200,"acle":7201,"Ġwhilst":7202,"Ġdeck":7203,"Ġkann":7204,"aga":7205,"ables":7206,"antavada":7207,"Ġresign":7208,"Ġpartially":7209,"Ġagents":7210,"Ġspur":7211,"weight":7212,"Ġformal":7213,"Ġpeters":7214,"Ġremark":7215,"Ġrelie":7216,"Ġcarved":7217,"Ġfrig":7218,"Ġstarlings":7219,"Ġoperate":7220,"Ġanyone":7221,"Ġraaf":7222,"Ġglad":7223,"Ġvictories":7224,"Ġ1927":7225,"Ġswit":7226,"Ġamongst":7227,"Ġhurricanes":7228,"Ġeveryone":7229,"Ġmovements":7230,"Ġcasting":7231,"Ġrichmond":7232,"Ġaffairs":7233,"Ġmixture":7234,"Ġsurvive":7235,"Ġdeparture":7236,"Ġbiggest":7237,"Ġwilson":7238,"Ġgarrison":7239,"Ġlayer":7240,"Ġpropag":7241,"Ġportugal":7242,"Ġbombard":7243,"Ġshells":7244,"Ġinstruments":7245,"Ġeaton":7246,"Ġbulls":7247,"Ġswedish":7248,"Ġplateau":7249,"Ġgwen":7250,"Ġsubstantial":7251,"Ġanekantavada":7252,"Ġemergency":7253,"Ġustase":7254,"Ġkannada":7255,"ka":7256,"kh":7257,"life":7258,"mus":7259,"pent":7260,"Ê»":7261,"het":7262,"Ġsic":7263,"Ġsung":7264,"Ġwives":7265,"Ġcu":7266,"Ġcaves":7267,"Ġpull":7268,"ician":7269,"lets":7270,"Ġgle":7271,"Ġgust":7272,"Ġbearing":7273,"Ġwasn":7274,"uri":7275,"Ġforty":7276,"ithic":7277,"Ġrising":7278,"Ġrush":7279,"chang":7280,"andoba":7281,"osl":7282,"Ġyug":7283,"Ġtwins":7284,"Ġabund":7285,"Ġcommem":7286,"Ġshear":7287,"Ġmarry":7288,"Ġmarque":7289,"Ġresidence":7290,"Ġresigned":7291,"Ġspar":7292,"Ġspend":7293,"Ġspores":7294,"ricted":7295,"teenth":7296,"Ġgrave":7297,"Ġveronica":7298,"Ġconsol":7299,"Ġphr":7300,"Ġsimpson":7301,"Ġreprodu":7302,"Ġarmored":7303,"Ġinstance":7304,"Ġports":7305,"Ġdowntown":7306,"Ġpersu":7307,"Ġclassification":7308,"Ġ1933":7309,"Ġmidge":7310,"Ġrestored":7311,"Ġlisting":7312,"Ġpersonality":7313,"oval":7314,"Ġcompete":7315,"Ġfifteen":7316,"Ġlooks":7317,"Ġtechniques":7318,"Ġinteresting":7319,"Ġinnov":7320,"Ġcreative":7321,"Ġ1860":7322,"Ġsequences":7323,"Ġdocuments":7324,"forced":7325,"Ġoccupation":7326,"Ġestablishing":7327,"Ġthinking":7328,"itzer":7329,"Ġboxing":7330,"Ġstruggle":7331,"Ġpagan":7332,"Ġkhandoba":7333,"Ġpremiered":7334,"Ġterrorist":7335,"Ġcorporation":7336,"Ġreinforcements":7337,"Ġprice":7338,"Ġstewart":7339,"Ġyanke":7340,"Ġwicca":7341,"Ġabsolute":7342,"Ġyugosl":7343,"Ġmarquez":7344,"hang":7345,"ias":7346,"ja":7347,"western":7348,"Ġwag":7349,"Ġmental":7350,"roit":7351,"Ġnad":7352,"Ġniel":7353,"entional":7354,"Ġwasp":7355,"Ġforcing":7356,"Ġride":7357,"Ġjr":7358,"Ġdeleg":7359,"Ġprol":7360,"Ġprove":7361,"Ġyo":7362,"Ġuniverse":7363,"ĠâĤ":7364,"iped":7365,"Ġbore":7366,"Ġresolution":7367,"Ġspr":7368,"ryce":7369,"Ġprefect":7370,"Ġoutf":7371,"rene":7372,"Ġ68":7373,"Ġmiller":7374,"Ġzoo":7375,"Ġcontinental":7376,"Ġdesigns":7377,"Ġoffices":7378,"onto":7379,"Ġ1957":7380,"Ġdrain":7381,"Ġmoderate":7382,"Ġfederation":7383,"Ġfrelim":7384,"Ġfuner":7385,"Ġdetroit":7386,"Ġtoronto":7387,"Ġscientists":7388,"Ġphilip":7389,"Ġpredomin":7390,"Ġrecognised":7391,"Ġflower":7392,"Ġmartial":7393,"Ġapplication":7394,"Ġordin":7395,"Ġinhg":7396,"roscop":7397,"Ġexperiences":7398,"Ġweapon":7399,"Ġwright":7400,"Ġpreparation":7401,"Ġillustrated":7402,"Ġneighbor":7403,"Ġminimum":7404,"Ġjurchen":7405,"Ġphoenix":7406,"Ġmulder":7407,"Ġretirement":7408,"Ġmozambique":7409,"cribed":7410,"Ġacknowled":7411,"Ġcotton":7412,"Ġcatechism":7413,"Ġfrelimo":7414,"iar":7415,"tav":7416,"za":7417,"áĥ":7418,"Ġáĥ":7419,"Ġtide":7420,"Ġtiss":7421,"Ġsb":7422,"Ġsar":7423,"Ġsans":7424,"Ġcelt":7425,"Ġbang":7426,"Ġbenn":7427,"Ġpy":7428,"Ġmbar":7429,"Ġhars":7430,"Ġlas":7431,"Ġns":7432,"Ġrect":7433,"Ġgor":7434,"Ġgri":7435,"Ġgiants":7436,"oul":7437,"uses":7438,"Ġjag":7439,"Ġkim":7440,"Ġkansas":7441,"Ġvast":7442,"osa":7443,"Ġmoore":7444,"antly":7445,"Ġtrained":7446,"Ġusage":7447,"Ġscully":7448,"Ġpoison":7449,"Ġspons":7450,"Ġfounder":7451,"Ġattrib":7452,"Ġformat":7453,"Ġ67":7454,"Ġengage":7455,"Ġparam":7456,"Ġcars":7457,"Ġdepicts":7458,"Ġreven":7459,"Ġstarred":7460,"atherine":7461,"Ġobst":7462,"Ġmetropol":7463,"Ġvariation":7464,"Ġkevin":7465,"Ġbarry":7466,"Ġwestward":7467,"Ġcharacterized":7468,"Ġpresentation":7469,"Ġcleared":7470,"Ġformerly":7471,"Ġbattlecru":7472,"Ġburial":7473,"Ġ1850":7474,"Ġarchaeologist":7475,"Ġmeasured":7476,"Ġcosts":7477,"Ġobjective":7478,"Ġrussia":7479,"Ġrevolutionary":7480,"ooth":7481,"worth":7482,"Ġwisni":7483,"Ġpictures":7484,"Ġphotograph":7485,"Ġexcavations":7486,"Ġmechanical":7487,"Ġdelayed":7488,"Ġtanks":7489,"Ġtactics":7490,"Ġcubs":7491,"Ġcoleman":7492,"Ġcryst":7493,"Ġgilbert":7494,"Ġremarked":7495,"Ġphilosophy":7496,"Ġscheme":7497,"Ġhudson":7498,"Ġconvinced":7499,"owiecki":7500,"Ġwisniowiecki":7501,"mouth":7502,"right":7503,"uable":7504,"xts":7505,"heim":7506,"hered":7507,"eratops":7508,"Ġbrick":7509,"Ġbald":7510,"Ġfis":7511,"Ġfro":7512,"Ġpig":7513,"Ġdivers":7514,"Ġdense":7515,"Ġstyles":7516,"imet":7517,"Ġrib":7518,"Ġkid":7519,"ategy":7520,"Ġplus":7521,"Ġshadow":7522,"Ġroth":7523,"akota":7524,"Ġtrick":7525,"Ġcoff":7526,"Ġherald":7527,"Ġtexts":7528,"Ġmargin":7529,"Ġplayoff":7530,"Ġpartner":7531,"Ġimpl":7532,"amps":7533,"Ġjobs":7534,"Ġblues":7535,"Ġwarren":7536,"Ġregiments":7537,"Ġfrust":7538,"Ġ84":7539,"Ġ86":7540,"Ġsupple":7541,"Ġrevival":7542,"Ġdecides":7543,"Ġzomb":7544,"Ġchron":7545,"Ġstrategy":7546,"Ġdescribe":7547,"Ġpersian":7548,"Ġdesigner":7549,"Ġinscription":7550,"Ġpassion":7551,"Ġimpressed":7552,"raph":7553,"Ġmagdal":7554,"Ġpublications":7555,"Ġcrake":7556,"Ġ140":7557,"Ġdifferences":7558,"Ġcommunication":7559,"Ġvaluable":7560,"Ġ1926":7561,"Ġexpert":7562,"Ġskills":7563,"book":7564,"Ġclaiming":7565,"aurus":7566,"Ġdraf":7567,"Ġtrek":7568,"Ġarriving":7569,"Ġfactory":7570,"Ġhamlet":7571,"chell":7572,"Ġclosest":7573,"Ġcamer":7574,"Ġturb":7575,"Ġstriking":7576,"Ġaudiences":7577,"Ġfundament":7578,"Ġrender":7579,"Ġantiqu":7580,"Ġclearly":7581,"Ġranging":7582,"Ġduty":7583,"Ġdisplayed":7584,"Ġoscar":7585,"Ġmrs":7586,"Ġfrequent":7587,"Ġmagnetic":7588,"Ġvote":7589,"Ġdetermine":7590,"Ġschedule":7591,"Ġopponent":7592,"Ġgraphics":7593,"criptions":7594,"Ġfeeding":7595,"Ġresidential":7596,"Ġcrops":7597,"Ġbenefit":7598,"Ġpredecessor":7599,"Ġvoyage":7600,"Ġwonder":7601,"Ġcavalry":7602,"Ġfeathers":7603,"Ġambassador":7604,"Ġhokies":7605,"bn":7606,"boy":7607,"hol":7608,"lie":7609,"ook":7610,"piece":7611,"rating":7612,"Ġtenth":7613,"rees":7614,"Ġtoll":7615,"iling":7616,"Ġaside":7617,"Ġisbn":7618,"Ġchanc":7619,"Ġchagas":7620,"aints":7621,"iform":7622,"iveness":7623,"Ġroots":7624,"abil":7625,"Ġarcher":7626,"Ġclin":7627,"Ġintel":7628,"Ġabby":7629,"oren":7630,"Ġcommons":7631,"Ġattained":7632,"Ġcenters":7633,"Ġpeach":7634,"Ġgene":7635,"Ġcargo":7636,"Ġreleases":7637,"Ġdefending":7638,"Ġgrown":7639,"Ġenth":7640,"Ġelections":7641,"Ġarmament":7642,"Ġartwork":7643,"Ġteamm":7644,"Ġinstall":7645,"Ġmathews":7646,"Ġperspective":7647,"yline":7648,"Ġimprison":7649,"Ġcommandment":7650,"Ġraf":7651,"Ġconsidering":7652,"Ġpromised":7653,"Ġrestricted":7654,"Ġcheck":7655,"bey":7656,"Ġpossess":7657,"Ġtemporary":7658,"Ġvalky":7659,"Ġerr":7660,"Ġharbour":7661,"Ġhighways":7662,"Ġarrive":7663,"Ġargues":7664,"Ġ1905":7665,"Ġannounce":7666,"Ġturks":7667,"Ġranking":7668,"Ġmachines":7669,"Ġruling":7670,"Ġsalv":7671,"Ġcruise":7672,"Ġquarterback":7673,"ucky":7674,"Ġprotestant":7675,"Ġdegrees":7676,"Ġbatteries":7677,"Ġbadly":7678,"Ġnewspapers":7679,"Ġmagnitude":7680,"Ġvictorian":7681,"Ġwaiting":7682,"Ġdefinition":7683,"Ġleslie":7684,"Ġjonathan":7685,"Ġadaptation":7686,"Ġprompted":7687,"malley":7688,"Ġupdated":7689,"Ġfalse":7690,"Ġexclusively":7691,"Ġalleged":7692,"Ġkelly":7693,"Ġdiplom":7694,"Ġvalkyria":7695,"burn":7696,"put":7697,"Ġue":7698,"inery":7699,"err":7700,"Ġcode":7701,"Ġbones":7702,"Ġfisher":7703,"Ġanaly":7704,"Ġmcl":7705,"Ġdave":7706,"icit":7707,"icia":7708,"state":7709,"adheera":7710,"olen":7711,"owa":7712,"Ġisot":7713,"Ġjet":7714,"Ġdeity":7715,"Ġvac":7716,"Ġcomics":7717,"osom":7718,"Ġnebr":7719,"Ġexists":7720,"akum":7721,"ĠâĢľ":7722,"ishn":7723,"Ġclark":7724,"Ġabd":7725,"Ġallen":7726,"Ġresumed":7727,"Ġ58":7728,"Ġoutbreak":7729,"Ġearn":7730,"Ġcharged":7731,"Ġ78":7732,"Ġparaly":7733,"Ġrelation":7734,"Ġnorthward":7735,"Ġsurge":7736,"Ġ08":7737,"Ġdecay":7738,"Ġartistic":7739,"Ġ178":7740,"Ġmetre":7741,"Ġmagadheera":7742,"Ġcheval":7743,"gery":7744,"Ġanthem":7745,"Ġglobe":7746,"Ġnortheastern":7747,"Ġexplains":7748,"Ġhandled":7749,"Ġfurthermore":7750,"Ġpatri":7751,"Ġtourist":7752,"Ġbands":7753,"Ġjackets":7754,"Ġheroes":7755,"Ġstructural":7756,"Ġfifty":7757,"Ġtesting":7758,"Ġtalent":7759,"Ġcrews":7760,"Ġinjured":7761,"Ġutil":7762,"Ġamounts":7763,"Ġcelebrated":7764,"rupted":7765,"Ġinvestigation":7766,"Ġboundary":7767,"Ġbulk":7768,"Ġchronicles":7769,"Ġmanufactur":7770,"Ġliberal":7771,"Ġethnic":7772,"Ġdwarf":7773,"Ġdisappeared":7774,"Ġbrooks":7775,"Ġcinema":7776,"Ġdrug":7777,"Ġstrengthened":7778,"Ġbertin":7779,"Ġinhabitants":7780,"Ġerected":7781,"Ġiraq":7782,"Ġdeemed":7783,"Ġnurse":7784,"Ġsuicide":7785,"Ġuefa":7786,"Ġnebraska":7787,"Ġparalymp":7788,"gov":7789,"iac":7790,"night":7791,"vant":7792,"Ġtack":7793,"Ġwrap":7794,"Ġbind":7795,"Ġbanned":7796,"Ġpryce":7797,"Ġlies":7798,"Ġna":7799,"Ġnash":7800,"Ġrend":7801,"Ġgam":7802,"omtav":7803,"Ġstores":7804,"Ġasomtav":7805,"Ġchain":7806,"Ġky":7807,"Ġkenn":7808,"emies":7809,"ifies":7810,"illed":7811,"apse":7812,"Ġshield":7813,"opher":7814,"Ġexposed":7815,"aku":7816,"Ġunf":7817,"Ġark":7818,"clos":7819,"Ġherze":7820,"Ġscattered":7821,"okovic":7822,"Ġupset":7823,"Ġbrill":7824,"Ġpeaking":7825,"Ġassess":7826,"ugu":7827,"Ġemmy":7828,"Ġbuy":7829,"Ġenters":7830,"Ġmillenn":7831,"Ġzinc":7832,"Ġ165":7833,"Ġlandings":7834,"Ġrunners":7835,"neth":7836,"Ġ113":7837,"Ġinscriptions":7838,"Ġsteep":7839,"Ġtriang":7840,"Ġchest":7841,"Ġdemands":7842,"Ġdifference":7843,"Ġorganisation":7844,"Ġbasement":7845,"Ġrefuge":7846,"Ġ1924":7847,"Ġ1925":7848,"Ġharold":7849,"Ġreferring":7850,"Ġseek":7851,"Ġprofile":7852,"Ġdavis":7853,"Ġturrets":7854,"Ġcircle":7855,"Ġcondem":7856,"Ġmadrid":7857,"Ġdominant":7858,"Ġprevented":7859,"Ġdjokovic":7860,"Ġsettlements":7861,"Ġsoutheastern":7862,"Ġdemonstrated":7863,"Ġdistinctive":7864,"Ġuncertain":7865,"otype":7866,"Ġexecuted":7867,"Ġassassination":7868,"Ġpursue":7869,"Ġsubstitute":7870,"Ġmeteorological":7871,"Ġtrophy":7872,"Ġyankees":7873,"Ġnielsen":7874,"govina":7875,"Ġasomtavruli":7876,"Ġherzegovina":7877,"gers":7878,"noon":7879,"ÅĤ":7880,"Ġaster":7881,"Ġbible":7882,"ora":7883,"Ġdies":7884,"Ġrevers":7885,"oux":7886,"ilation":7887,"stic":7888,"Ġstu":7889,"Ġstood":7890,"Ġaltered":7891,"Ġkong":7892,"Ġcomed":7893,"agement":7894,"ifer":7895,"Ġsure":7896,"Ġexport":7897,"udes":7898,"Ġcoin":7899,"Ġabol":7900,"Ġafternoon":7901,"Ġfee":7902,"Ġfeels":7903,"ignment":7904,"Ġweir":7905,"Ġassisted":7906,"Ġparan":7907,"Ġacre":7908,"Ġacute":7909,"Ġliked":7910,"Ġeleph":7911,"Ġedges":7912,"Ġsmooth":7913,"Ġrunway":7914,"fully":7915,"Ġsixteen":7916,"Ġcommandos":7917,"Ġ1934":7918,"Ġapproval":7919,"Ġvalve":7920,"Ġinitiated":7921,"Ġanglo":7922,"Ġmagazines":7923,"Ġjews":7924,"Ġberlin":7925,"Ġhostile":7926,"Ġmadison":7927,"Ġcongo":7928,"Ġsatell":7929,"Ġrebell":7930,"Ġmurray":7931,"Ġsubjects":7932,"Ġindicating":7933,"Ġtennesse":7934,"Ġtournaments":7935,"Ġmelody":7936,"Ġtranslation":7937,"Ġsucceed":7938,"Ġdefenders":7939,"Ġadvertis":7940,"Ġpremiere":7941,"Ġsuspended":7942,"Ġpounds":7943,"Ġwarrior":7944,"borne":7945,"friend":7946,"Ġhouston":7947,"Ġalfred":7948,"Ġcommemor":7949,"Ġceltic":7950,"Ġtennessee":7951,"aver":7952,"con":7953,"hmun":7954,"ois":7955,"tles":7956,"vard":7957,"Ġtast":7958,"inder":7959,"Ġsas":7960,"Ġww":7961,"Ġcant":7962,"Ġcous":7963,"unction":7964,"Ġfert":7965,"Ġanch":7966,"Ġpant":7967,"isters":7968,"Ġdual":7969,"Ġdenn":7970,"Ġtoured":7971,"Ġlud":7972,"Ġndh":7973,"Ġgill":7974,"Ġgift":7975,"ilty":7976,"Ġontar":7977,"Ġstal":7978,"Ġalt":7979,"Ġalleg":7980,"eline":7981,"Ġrag":7982,"ote":7983,"Ġconclusion":7984,"sex":7985,"Ġenzy":7986,"ellar":7987,"endar":7988,"Ġsheff":7989,"pled":7990,"Ġmariana":7991,"Ġdisband":7992,"Ġevolution":7993,"Ġoverl":7994,"Ġcharm":7995,"Ġgenetic":7996,"Ġunderne":7997,"Ġ92":7998,"Ġguilty":7999,"ologies":8000,"Ġdeput":8001,"Ġ09":8002,"Ġreceives":8003,"Ġ101":8004,"Ġrepair":8005,"Ġsigns":8006,"Ġbelg":8007,"Ġstring":8008,"Ġcolleagues":8009,"Ġordering":8010,"Ġeshmun":8011,"Ġtempor":8012,"Ġdeliber":8013,"Ġexplo":8014,"Ġswiss":8015,"Ġrealized":8016,"Ġ1000":8017,"Ġwalking":8018,"Ġromanian":8019,"Ġprogramming":8020,"Ġpresidential":8021,"encing":8022,"Ġ1908":8023,"Ġreader":8024,"Ġbiological":8025,"Ġreducing":8026,"Ġrespective":8027,"Ġreveal":8028,"Ġviolent":8029,"Ġ1870":8030,"Ġcertainly":8031,"Ġkeeping":8032,"Ġadministrative":8033,"Ġdelivery":8034,"Ġrequested":8035,"Ġarchitectural":8036,"Ġmicro":8037,"Ġbidd":8038,"Ġconservative":8039,"Ġhawaii":8040,"Ġmeasurements":8041,"Ġfatal":8042,"Ġeliminated":8043,"Ġorchestra":8044,"Ġkurt":8045,"Ġrebuilt":8046,"Ġpretty":8047,"burgh":8048,"Ġwagner":8049,"Ġparamount":8050,"Ġchevaliers":8051,"Ġontario":8052,"Ġsheffield":8053,"Ġunderneath":8054,"gars":8055,"kon":8056,"oom":8057,"vious":8058,"ware":8059,"Ġomar":8060,"Ġoreg":8061,"Ġsend":8062,"rel":8063,"reet":8064,"Ġbom":8065,"Ġpin":8066,"Ġdens":8067,"Ġdakota":8068,"Ġgets":8069,"adier":8070,"Ġsting":8071,"Ġstav":8072,"Ġstrict":8073,"Ġasian":8074,"Ġasks":8075,"Ġriding":8076,"Ġyield":8077,"Ġleigh":8078,"Ġuniform":8079,"Ġtrunk":8080,"Ġtracy":8081,"Ġcomponents":8082,"Ġclint":8083,"Ġabc":8084,"Ġamaz":8085,"Ġmars":8086,"Ġnoble":8087,"Ġevans":8088,"Ġconsp":8089,"Ġcarre":8090,"Ġcarpent":8091,"Ġsurve":8092,"Ġ02":8093,"Ġ123":8094,"Ġoperates":8095,"Ġobvious":8096,"Ġ155":8097,"Ġpeoples":8098,"Ġmathem":8099,"Ġimpression":8100,"Ġchristine":8101,"Ġvisiting":8102,"Ġorganised":8103,"Ġ1923":8104,"Ġsentences":8105,"Ġharrison":8106,"Ġshoulder":8107,"Ġcougars":8108,"shore":8109,"Ġanimation":8110,"Ġcircuit":8111,"Ġrounds":8112,"Ġsympt":8113,"Ġparliamentary":8114,"Ġemployees":8115,"aski":8116,"Ġkilome":8117,"Ġvenues":8118,"Ġpotentially":8119,"Ġchicks":8120,"Ġautumn":8121,"Ġcoaching":8122,"Ġobservation":8123,"Ġbenjam":8124,"Ġrhys":8125,"Ġrhyme":8126,"Ġpulaski":8127,"Ġhawaiian":8128,"Ġwithdrawal":8129,"Ġmolecules":8130,"Ġinterpre":8131,"Ġculmin":8132,"Ġqueensland":8133,"Ġhelium":8134,"Ġcollapsed":8135,"Ġelaborate":8136,"Ġsatisf":8137,"Ġpropaganda":8138,"Ġintellect":8139,"Ġwrapped":8140,"Ġoregon":8141,"Ġbenjamin":8142,"bing":8143,"ji":8144,"mat":8145,"non":8146,"rad":8147,"rus":8148,"inian":8149,"Ġwander":8150,"Ġcass":8151,"Ġfasc":8152,"anag":8153,"Ġpace":8154,"Ġmk":8155,"Ġdict":8156,"Ġlakes":8157,"Ġlinc":8158,"Ġlanes":8159,"Ġgent":8160,"Ġasking":8161,"oln":8162,"eless":8163,"etown":8164,"Ġchase":8165,"Ġsuitable":8166,"apore":8167,"Ġplatin":8168,"Ġshorter":8169,"arte":8170,"Ġcoordin":8171,"iney":8172,"Ġuss":8173,"Ġclust":8174,"Ġcontribution":8175,"raia":8176,"ogy":8177,"Ġgoat":8178,"Ġcanon":8179,"Ġearning":8180,"Ġpeck":8181,"osex":8182,"Ġremove":8183,"Ġgenes":8184,"Ġparade":8185,"Ġparody":8186,"Ġacids":8187,"Ġsurgery":8188,"Ġsingapore":8189,"Ġdescend":8190,"Ġstarring":8191,"Ġ163":8192,"ieties":8193,"Ġextrat":8194,"Ġkeys":8195,"Ġdams":8196,"ucks":8197,"Ġadvancing":8198,"ontin":8199,"Ġexpression":8200,"Ġchristopher":8201,"Ġcorb":8202,"Ġbelieving":8203,"Ġkills":8204,"Ġvalid":8205,"Ġsentiment":8206,"Ġweekend":8207,"Ġyoungest":8208,"Ġcurt":8209,"Ġseeking":8210,"Ġwoodhouse":8211,"Ġputting":8212,"Ġvoices":8213,"Ġterritorial":8214,"Ġrenov":8215,"Ġspacecraft":8216,"Ġwildlife":8217,"Ġtheatrical":8218,"Ġ1830":8219,"Ġloud":8220,"Ġcompliment":8221,"Ġinhab":8222,"Ġlogic":8223,"Ġboundaries":8224,"Ġdispute":8225,"Ġdocumented":8226,"Ġtranslated":8227,"Ġwider":8228,"Ġneighbour":8229,"Ġborough":8230,"Ġsisler":8231,"Ġkorea":8232,"Ġsorraia":8233,"Ġcolumns":8234,"Ġpagod":8235,"Ġcomparison":8236,"Ġnegotiations":8237,"Ġislamic":8238,"Ġdrove":8239,"Ġdoctrine":8240,"imetres":8241,"Ġbrilliant":8242,"Ġlincoln":8243,"Ġplatinum":8244,"Ġextratropical":8245,"dney":8246,"graph":8247,"krit":8248,"mit":8249,"mont":8250,"vised":8251,"wan":8252,"Ã¸":8253,"Ġsant":8254,"Ġsample":8255,"Ġsoph":8256,"Ġwish":8257,"onia":8258,"Ġcress":8259,"Ġcullen":8260,"Ġbou":8261,"Ġfishing":8262,"Ġinfer":8263,"Ġinclusion":8264,"Ġped":8265,"Ġdd":8266,"inge":8267,"ashed":8268,"Ġhans":8269,"Ġnaming":8270,"Ġgap":8271,"Ġeve":8272,"Ġbeam":8273,"Ġbears":8274,"acru":8275,"Ġforg":8276,"Ġforth":8277,"iders":8278,"Ġjard":8279,"Ġjason":8280,"uls":8281,"Ġcha":8282,"rif":8283,"odore":8284,"Ġnotice":8285,"Ġscar":8286,"Ġscout":8287,"enden":8288,"Ġspending":8289,"Ġdisagre":8290,"Ġoutl":8291,"kshire":8292,"Ġremoval":8293,"Ġveracru":8294,"Ġproduces":8295,"Ġpresby":8296,"Ġsubmitted":8297,"Ġlaugh":8298,"Ġairlines":8299,"Ġrevised":8300,"Ġcompleting":8301,"Ġcouldn":8302,"Ġprix":8303,"Ġcrab":8304,"Ġtopped":8305,"inaw":8306,"Ġprotes":8307,"Ġuniversities":8308,"Ġpersonally":8309,"Ġexplain":8310,"Ġexploration":8311,"Ġbases":8312,"Ġswim":8313,"Ġbriggs":8314,"Ġfriendly":8315,"Ġnettles":8316,"Ġrepresentation":8317,"Ġfactor":8318,"Ġillness":8319,"Ġ1907":8320,"Ġindustries":8321,"Ġvolumes":8322,"Ġracing":8323,"Ġinnoc":8324,"Ġcollapse":8325,"Ġbodyline":8326,"Ġsemif":8327,"Ġquestions":8328,"Ġdegrom":8329,"Ġbirthday":8330,"Ġfavorable":8331,"Ġultimate":8332,"Ġpowered":8333,"Ġprepare":8334,"Ġhonorary":8335,"Ġ766":8336,"Ġshrine":8337,"Ġsculptures":8338,"Ġbattleships":8339,"Ġlouisiana":8340,"Ġagriculture":8341,"Ġingres":8342,"Ġbeauty":8343,"Ġencountered":8344,"Ġmolecular":8345,"Ġvertical":8346,"Ġtelugu":8347,"Ġsegment":8348,"Ġsuddenly":8349,"Ġstrategic":8350,"Ġreflected":8351,"Ġgravity":8352,"Ġsanskrit":8353,"Ġmillennium":8354,"Ġsatellite":8355,"Ġbelgium":8356,"Ġtemporarily":8357,"Ġbiddenden":8358,"Ġcresswell":8359,"Ġjardine":8360,"Ġveracruz":8361,"eign":8362,"went":8363,"Ġï":8364,"Ġump":8365,"Ġaa":8366,"Ġah":8367,"Ġaz":8368,"Ġsack":8369,"Ġsony":8370,"Ġsailed":8371,"Ġcash":8372,"Ġfitted":8373,"Ġfulf":8374,"Ġfoss":8375,"atural":8376,"itively":8377,"anita":8378,"oral":8379,"Ġphen":8380,"Ġmg":8381,"Ġdad":8382,"Ġders":8383,"Ġdud":8384,"Ġhay":8385,"Ġhidden":8386,"icial":8387,"Ġnl":8388,"Ġnave":8389,"Ġgamb":8390,"oming":8391,"urally":8392,"vereign":8393,"elle":8394,"Ġjury":8395,"Ġatom":8396,"ulu":8397,"agogue":8398,"estyle":8399,"Ġneves":8400,"Ġarvn":8401,"ĠâĢĿ":8402,"ieth":8403,"Ġcoinc":8404,"Ġscand":8405,"Ġamanita":8406,"Ġmeters":8407,"Ġupgraded":8408,"Ġevident":8409,"Ġsovereign":8410,"Ġbrain":8411,"Ġbrack":8412,"Ġjoining":8413,"Ġflies":8414,"enses":8415,"Ġunderwent":8416,"Ġliqu":8417,"Ġmah":8418,"Ġgenera":8419,"Ġ03":8420,"Ġlikewise":8421,"Ġarmies":8422,"Ġmainland":8423,"phoon":8424,"Ġsignal":8425,"Ġprovinc":8426,"Ġdiscussion":8427,"Ġwestmin":8428,"Ġslip":8429,"Ġtyphoon":8430,"Ġapproaches":8431,"Ġ1922":8432,"Ġernest":8433,"Ġxii":8434,"Ġpatrol":8435,"Ġtraded":8436,"Ġcharted":8437,"Ġlesser":8438,"Ġradical":8439,"Ġvii":8440,"Ġballad":8441,"Ġideal":8442,"Ġhyg":8443,"Ġcommenting":8444,"Ġmemories":8445,"Ġfault":8446,"Ġchoose":8447,"Ġnominations":8448,"Ġsteps":8449,"Ġassembled":8450,"Ġobjectives":8451,"Ġsynagogue":8452,"Ġconflicts":8453,"Ġshares":8454,"Ġmichel":8455,"Ġwishes":8456,"Ġjunction":8457,"Ġpulled":8458,"Ġninet":8459,"Ġstruggled":8460,"Ġprisoners":8461,"Ġneutral":8462,"Ġemphasis":8463,"Ġbeliefs":8464,"Ġconsequently":8465,"Ġaccomplish":8466,"Ġpattyc":8467,"Ġsioux":8468,"Ġjacob":8469,"Ġcampbell":8470,"Ġdemolished":8471,"Ġecho":8472,"Ġcabinet":8473,"Ġcorpus":8474,"howitz":8475,"Ġillegal":8476,"Ġphrase":8477,"Ġbennett":8478,"Ġchrono":8479,"Ġfundamental":8480,"Ġclinton":8481,"Ġdershowitz":8482,"Ġdudley":8483,"Ġnevesinje":8484,"Ġprovincial":8485,"Ġwestminster":8486,"Ġpattycake":8487,"ban":8488,"bles":8489,"lock":8490,"nc":8491,"nels":8492,"rich":8493,"Ġion":8494,"Ġian":8495,"Ġtony":8496,"inations":8497,"Ġsab":8498,"Ġsult":8499,"Ġsings":8500,"Ġbare":8501,"Ġfib":8502,"Ġfusion":8503,"orable":8504,"Ġpp":8505,"Ġpic":8506,"Ġpages":8507,"Ġdust":8508,"Ġtox":8509,"Ġnice":8510,"Ġthrew":8511,"Ġgat":8512,"Ġbeings":8513,"Ġbeats":8514,"acre":8515,"acles":8516,"ira":8517,"olithic":8518,"Ġrav":8519,"otte":8520,"Ġsect":8521,"Ġchan":8522,"Ġchrom":8523,"Ġkiss":8524,"ersed":8525,"Ġsuit":8526,"ivated":8527,"Ġshift":8528,"Ġunnamed":8529,"Ġusher":8530,"Ġabilities":8531,"Ġabbey":8532,"Ġallies":8533,"Ġalliance":8534,"rae":8535,"oko":8536,"Ġresol":8537,"Ġpohl":8538,"Ġfinale":8539,"Ġpreston":8540,"Ġcanning":8541,"Ġindones":8542,"Ġbrut":8543,"Ġgran":8544,"Ġgrap":8545,"Ġfold":8546,"Ġquant":8547,"Ġcarries":8548,"Ġguerr":8549,"Ġsupp":8550,"Ġmainstream":8551,"Ġdevelopers":8552,"Ġzanz":8553,"Ġobl":8554,"Ġ170":8555,"Ġkeith":8556,"Ġadvice":8557,"aho":8558,"Ġreviewed":8559,"Ġeventual":8560,"Ġswitzer":8561,"Ġprofit":8562,"brace":8563,"Ġdrivers":8564,"Ġfacility":8565,"Ġreduction":8566,"Ġachievement":8567,"Ġsnake":8568,"Ġ1861":8569,"Ġreactions":8570,"Ġ360":8571,"Ġcredit":8572,"Ġdaughters":8573,"Ġoxy":8574,"Ġtemperatures":8575,"Ġpercentage":8576,"Ġcontroller":8577,"Ġpilots":8578,"Ġdispat":8579,"Ġunlikely":8580,"Ġreforms":8581,"Ġchronicle":8582,"Ġcharlotte":8583,"Ġdanger":8584,"Ġcolumbus":8585,"Ġpunishment":8586,"Ġidaho":8587,"Ġargentine":8588,"Ġaggreg":8589,"Ġsweden":8590,"Ġibis":8591,"Ġcooperation":8592,"Ġkirk":8593,"Ġrotation":8594,"Ġmitchell":8595,"Ġappointment":8596,"Ġmerely":8597,"Ġleukemia":8598,"Ġtigers":8599,"Ġconversation":8600,"Ġdiagnos":8601,"Ġfernandez":8602,"Ġcaesar":8603,"ĠâĤ¹":8604,"Ġneighborhood":8605,"Ġmetropolitan":8606,"Ġenthus":8607,"Ġwwf":8608,"Ġwanderers":8609,"Ġzanzib":8610,"Ġswitzerland":8611,"cer":8612,"father":8613,"rising":8614,"wer":8615,"Ġvel":8616,"Ġtub":8617,"Ġtelling":8618,"inction":8619,"Ġok":8620,"Ġot":8621,"Ġsq":8622,"Ġbac":8623,"Ġbah":8624,"atically":8625,"Ġpad":8626,"Ġpak":8627,"Ġdahl":8628,"Ġhast":8629,"rot":8630,"Ġlig":8631,"Ġlamb":8632,"Ġnel":8633,"Ġgosp":8634,"Ġonwards":8635,"Ġongoing":8636,"Ġstellar":8637,"Ġisle":8638,"Ġisesi":8639,"otes":8640,"Ġjen":8641,"Ġvs":8642,"Ġvault":8643,"ager":8644,"riages":8645,"Ġyout":8646,"odrom":8647,"opl":8648,"artney":8649,"Ġenemies":8650,"Ġtrig":8651,"Ġtrails":8652,"iao":8653,"ishops":8654,"Ġboot":8655,"Ġclothes":8656,"Ġherd":8657,"soft":8658,"Ġrecall":8659,"Ġuprising":8660,"Ġevalu":8661,"Ġoffering":8662,"Ġoffshore":8663,"Ġspeaker":8664,"ensions":8665,"Ġblu":8666,"Ġthemed":8667,"Ġcarmel":8668,"Ġmines":8669,"Ġdover":8670,"Ġguid":8671,"ternal":8672,"Ġbacked":8673,"Ġrevol":8674,"Ġdecisions":8675,"Ġarmoured":8676,"Ġbelgian":8677,"Ġ117":8678,"Ġstrange":8679,"Ġeverton":8680,"Ġadvoc":8681,"Ġconfront":8682,"Ġrestore":8683,"Ġchristians":8684,"Ġsoci":8685,"Ġdelaware":8686,"Ġharbor":8687,"Ġlessing":8688,"Ġcontrols":8689,"Ġwalker":8690,"Ġhoover":8691,"Ġveter":8692,"Ġsignificance":8693,"Ġtooth":8694,"Ġtape":8695,"Ġdevast":8696,"Ġtraveling":8697,"Ġclosure":8698,"Ġfacil":8699,"Ġprofession":8700,"Ġhelping":8701,"Ġsporting":8702,"Ġmachinery":8703,"Ġdraws":8704,"Ġduo":8705,"Ġmeasuring":8706,"Ġmadero":8707,"Ġexcell":8708,"Ġinvestment":8709,"Ġ350":8710,"Ġmccartney":8711,"Ġcontrad":8712,"Ġairports":8713,"Ġsenator":8714,"Ġimmort":8715,"Ġtaxonomy":8716,"Ġaerial":8717,"Ġaerodrom":8718,"Ġaccompanying":8719,"Ġlifetime":8720,"Ġgardens":8721,"Ġgardner":8722,"Ġtonina":8723,"Ġelevation":8724,"Ġceremon":8725,"Ġpatterns":8726,"Ġduration":8727,"Ġaggressive":8728,"Ġteachers":8729,"Ġnazi":8730,"Ġsharp":8731,"Ġrecreation":8732,"Ġdepicting":8733,"Ġtravelled":8734,"Ġalberta":8735,"Ġpregnancy":8736,"Ġcensus":8737,"music":8738,"Ġnadal":8739,"Ġpyram":8740,"Ġstuart":8741,"Ġdeputy":8742,"osexual":8743,"Ġgospel":8744,"Ġyoutube":8745,"dles":8746,"sis":8747,"Ġtut":8748,"Ġcel":8749,"Ġcards":8750,"unch":8751,"Ġble":8752,"Ġpip":8753,"Ġdol":8754,"Ġdiver":8755,"Ġhub":8756,"Ġtoy":8757,"Ġlumber":8758,"star":8759,"amil":8760,"Ġstap":8761,"olia":8762,"Ġrig":8763,"Ġrus":8764,"Ġseattle":8765,"Ġjar":8766,"Ġjaw":8767,"Ġkate":8768,"herry":8769,"odies":8770,"Ġshirt":8771,"Ġexclud":8772,"Ġadela":8773,"Ġabb":8774,"Ġmanor":8775,"Ġallosaurus":8776,"Ġpermission":8777,"Ġspots":8778,"Ġearnest":8779,"Ġprinted":8780,"Ġacycl":8781,"Ġsydney":8782,"Ġretal":8783,"Ġwells":8784,"Ġterrain":8785,"Ġoperational":8786,"Ġmatters":8787,"Ġjuven":8788,"Ġcommands":8789,"Ġcommanders":8790,"Ġraising":8791,"Ġtrio":8792,"Ġbread":8793,"imeter":8794,"Ġvalues":8795,"Ġrequires":8796,"Ġfarming":8797,"Ġpitching":8798,"itarian":8799,"Ġveer":8800,"Ġdonated":8801,"Ġ1902":8802,"Ġclosing":8803,"Ġ1895":8804,"Ġsymp":8805,"Ġmadonna":8806,"Ġdetermin":8807,"Ġtwentieth":8808,"Ġindicates":8809,"Ġparent":8810,"Ġpairs":8811,"Ġferry":8812,"Ġconversion":8813,"Ġpolicies":8814,"Ġthirteen":8815,"Ġsearching":8816,"Ġcancelled":8817,"Ġcandidates":8818,"Ġpreparing":8819,"Ġconcentrated":8820,"Ġconnecting":8821,"Ġbattleship":8822,"Ġfarmers":8823,"Ġdubbed":8824,"Ġencounter":8825,"Ġexecution":8826,"Ġleonard":8827,"Ġbronze":8828,"Ġaimed":8829,"Ġexactly":8830,"Ġpartnership":8831,"Ġjoyful":8832,"Ġcosm":8833,"Ġknights":8834,"Ġaccurate":8835,"Ġcrusaders":8836,"Ġdecorated":8837,"Ġtrapped":8838,"Ġembarked":8839,"Ġmanuscripts":8840,"Ġhydrogen":8841,"Ġrecurring":8842,"Ġrevenue":8843,"Ġarkansas":8844,"Ġstavanger":8845,"Ġcarpenter":8846,"Ġphenom":8847,"Ġadelaide":8848,"Ġacyclic":8849,"cape":8850,"dream":8851,"jan":8852,"oot":8853,"pes":8854,"ux":8855,"zed":8856,"inth":8857,"eries":8858,"Ġoz":8859,"Ġwore":8860,"Ġwaves":8861,"Ġwik":8862,"Ġinning":8863,"isle":8864,"Ġmys":8865,"Ġhugh":8866,"Ġhpa":8867,"Ġhnc":8868,"Ġtouring":8869,"Ġtoky":8870,"rose":8871,"Ġlion":8872,"Ġreop":8873,"Ġreaches":8874,"Ġbeating":8875,"Ġstale":8876,"oli":8877,"Ġalive":8878,"eland":8879,"Ġrick":8880,"Ġrushing":8881,"Ġseats":8882,"Ġwhate":8883,"Ġchord":8884,"Ġker":8885,"Ġkos":8886,"Ġvand":8887,"Ġrook":8888,"Ġleeds":8889,"iang":8890,"Ġcompilation":8891,"Ġabroad":8892,"Ġamid":8893,"Ġrecip":8894,"oken":8895,"Ġserbs":8896,"Ġpoets":8897,"Ġevolved":8898,"ffling":8899,"Ġintercept":8900,"Ġflesh":8901,"Ġfiles":8902,"Ġdaydream":8903,"Ġmonster":8904,"Ġmonkey":8905,"Ġpositively":8906,"Ġmaur":8907,"Ġfourteen":8908,"Ġapprec":8909,"Ġepic":8910,"Ġphone":8911,"Ġbacking":8912,"Ġ01":8913,"Ġtransmission":8914,"Ġ125":8915,"Ġzo":8916,"Ġoperas":8917,"oyd":8918,"Ġbarbar":8919,"Ġcharacteristic":8920,"Ġchristi":8921,"Ġinternation":8922,"Ġdemon":8923,"Ġmorgan":8924,"Ġsolution":8925,"Ġharry":8926,"Ġfewer":8927,"Ġsket":8928,"Ġmembrane":8929,"Ġsoldier":8930,"Ġstronger":8931,"Ġstrongest":8932,"Ġfunctions":8933,"Ġdetected":8934,"Ġwatson":8935,"Ġcompositions":8936,"Ġdonald":8937,"Ġaffil":8938,"Ġtenure":8939,"Ġbroadway":8940,"Ġcivilians":8941,"Ġmothers":8942,"Ġanimated":8943,"Ġlacking":8944,"Ġarchaeologists":8945,"Ġderffling":8946,"Ġflowers":8947,"thodon":8948,"Ġmaintaining":8949,"Ġranks":8950,"Ġ1840":8951,"Ġangelou":8952,"Ġfailing":8953,"Ġjeremy":8954,"Ġmovies":8955,"Ġpanzer":8956,"Ġdynamic":8957,"Ġensemb":8958,"Ġinteractions":8959,"Ġwithdrawn":8960,"Ġbulgar":8961,"Ġwidow":8962,"ĠhawaiÊ»":8963,"Ġrecommend":8964,"Ġdreams":8965,"Ġqualified":8966,"Ġashore":8967,"Ġvolunteers":8968,"Ġsolely":8969,"Ġwickets":8970,"Ġhungarian":8971,"Ġrocks":8972,"Ġunclear":8973,"Ġdinosaurs":8974,"Ġwyoming":8975,"Ġwealthy":8976,"Ġpursuit":8977,"Ġvegetation":8978,"Ġwitchcraft":8979,"Ġvertex":8980,"Ġconsolid":8981,"Ġtissue":8982,"Ġcousin":8983,"Ġpresbyter":8984,"Ġmyself":8985,"Ġwhatever":8986,"Ġderfflinger":8987,"ĠhawaiÊ»i":8988,"ci":8989,"cons":8990,"cution":8991,"equ":8992,"oard":8993,"oven":8994,"power":8995,"zi":8996,"Ġtag":8997,"erce":8998,"Ġsib":8999,"enger":9000,"Ġinher":9001,"ishes":9002,"Ġmack":9003,"icity":9004,"Ġliz":9005,"leton":9006,"Ġgaining":9007,"Ġgael":9008,"street":9009,"Ġstakes":9010,"Ġheir":9011,"aya":9012,"eled":9013,"Ġri":9014,"Ġric":9015,"Ġconj":9016,"Ġkody":9017,"Ġneil":9018,"Ġarena":9019,"Ġtrains":9020,"Ġcoven":9021,"Ġcompens":9022,"Ġabuse":9023,"Ġallmusic":9024,"raid":9025,"Ġamph":9026,"Ġpermitted":9027,"Ġcommerce":9028,"Ġspa":9029,"Ġspell":9030,"Ġmegal":9031,"Ġoverlo":9032,"Ġintermedi":9033,"Ġloved":9034,"Ġjoh":9035,"Ġmusc":9036,"Ġmaya":9037,"Ġacted":9038,"Ġsax":9039,"Ġmint":9040,"Ġacou":9041,"Ġretail":9042,"Ġretrie":9043,"Ġpresents":9044,"Ġsurprise":9045,"Ġsingers":9046,"Ġlaud":9047,"Ġairfield":9048,"Ġwellington":9049,"Ġnumbered":9050,"Ġ105":9051,"tenance":9052,"Ġstarter":9053,"Ġ127":9054,"Ġmaintenance":9055,"Ġ168":9056,"Ġ114":9057,"Ġgovernments":9058,"Ġextr":9059,"Ġextinct":9060,"Ġbarrack":9061,"Ġsuccession":9062,"Ġsuccessive":9063,"Ġconcession":9064,"Ġincreases":9065,"Ġgeography":9066,"Ġanticip":9067,"Ġheavier":9068,"Ġhanded":9069,"Ġfried":9070,"Ġcoverage":9071,"eltown":9072,"Ġgoods":9073,"Ġromania":9074,"Ġcyt":9075,"Ġcyrus":9076,"Ġdeclar":9077,"Ġgrandfather":9078,"Ġoccurring":9079,"Ġ1903":9080,"Ġbowling":9081,"Ġhence":9082,"Ġidentify":9083,"Ġ1889":9084,"Ġcutting":9085,"Ġcruisers":9086,"Ġphysics":9087,"Ġarabs":9088,"Ġutah":9089,"Ġexamination":9090,"Ġmarketing":9091,"Ġconsistent":9092,"Ġbradstreet":9093,"Ġseriously":9094,"Ġreinforced":9095,"Ġtargets":9096,"Ġbedell":9097,"Ġprecip":9098,"Ġidol":9099,"Ġopinions":9100,"Ġneutr":9101,"Ġsora":9102,"Ġobtain":9103,"Ġgrammar":9104,"Ġvirtually":9105,"Ġjurchens":9106,"Ġhonours":9107,"Ġownership":9108,"Ġpuzzle":9109,"Ġpregnant":9110,"Ġrelegated":9111,"Ġmantell":9112,"Ġpirates":9113,"Ġdivorce":9114,"Ġappropriate":9115,"schild":9116,"Ġhampshire":9117,"Ġphotographs":9118,"Ġrothschild":9119,"Ġtaste":9120,"Ġstingray":9121,"Ġsymptoms":9122,"Ġinterpreted":9123,"Ġgentle":9124,"Ġprotesters":9125,"Ġxiii":9126,"Ġsultan":9127,"Ġoxygen":9128,"Ġpyramid":9129,"Ġgaelic":9130,"gam":9131,"nie":9132,"Ġtherap":9133,"Ġost":9134,"Ġsized":9135,"Ġsitting":9136,"una":9137,"Ġbib":9138,"Ġbrend":9139,"enous":9140,"ori":9141,"orious":9142,"Ġpuma":9143,"Ġmud":9144,"Ġtoler":9145,"rous":9146,"Ġnut":9147,"Ġreper":9148,"Ġeg":9149,"Ġrains":9150,"Ġseized":9151,"Ġconform":9152,"Ġkau":9153,"Ġva":9154,"umps":9155,"Ġroot":9156,"udo":9157,"Ġenclos":9158,"Ġtristan":9159,"Ġsciences":9160,"Ġmanip":9161,"Ġmanuel":9162,"Ġioc":9163,"Ġrecon":9164,"Ġfeud":9165,"Ġperceived":9166,"Ġtimber":9167,"Ġresid":9168,"ormal":9169,"Ġpounder":9170,"Ġattitude":9171,"ilding":9172,"Ġblocked":9173,"Ġengagement":9174,"Ġunderstood":9175,"orship":9176,"Ġ83":9177,"roph":9178,"Ġguine":9179,"Ġguild":9180,"Ġguides":9181,"Ġdepiction":9182,"Ġrevived":9183,"Ġinfection":9184,"Ġdistrib":9185,"Ġdownstream":9186,"Ġvaried":9187,"Ġbarrier":9188,"Ġhelps":9189,"Ġcollections":9190,"Ġirreg":9191,"Ġhalo":9192,"Ġcapturing":9193,"Ġexplicit":9194,"Ġforever":9195,"Ġtelegraph":9196,"Ġtours":9197,"Ġbills":9198,"Ġauthorized":9199,"issioned":9200,"Ġstatements":9201,"Ġ230":9202,"Ġfortune":9203,"Ġhamper":9204,"Ġballs":9205,"Ġsurvival":9206,"Ġpromotional":9207,"Ġdeparted":9208,"Ġaudition":9209,"Ġcopy":9210,"Ġflooded":9211,"Ġsalmon":9212,"Ġchristianity":9213,"Ġbalance":9214,"Ġhoused":9215,"Ġhospitals":9216,"Ġbreaks":9217,"Ġ1849":9218,"Ġparticipate":9219,"Ġvotes":9220,"Ġconstitu":9221,"Ġbuddh":9222,"Ġhabitats":9223,"Ġcontinuous":9224,"Ġcoldrum":9225,"Ġquestioned":9226,"Ġdefender":9227,"Ġsavage":9228,"Ġsubsid":9229,"Ġlegislature":9230,"Ġpalestinian":9231,"Ġetty":9232,"Ġregistered":9233,"Ġresemble":9234,"Ġohio":9235,"Ġhunter":9236,"Ġexperimental":9237,"Ġtasked":9238,"Ġpuzzles":9239,"Ġimmigration":9240,"Ġindigenous":9241,"Ġmargaret":9242,"Ġmlb":9243,"Ġrhodesian":9244,"Ġdisplaced":9245,"Ġrenewed":9246,"Ġproportion":9247,"Ġclothing":9248,"Ġdrainage":9249,"Ġcrystal":9250,"Ġannouncement":9251,"Ġkilometers":9252,"Ġirregular":9253,"bow":9254,"cover":9255,"iest":9256,"oh":9257,"ti":9258,"Ġss":9259,"Ġsel":9260,"rep":9261,"Ġcod":9262,"Ġfires":9263,"Ġpistol":9264,"Ġmall":9265,"Ġmason":9266,"Ġmask":9267,"Ġdor":9268,"Ġdot":9269,"asm":9270,"Ġhannah":9271,"Ġtod":9272,"Ġnca":9273,"Ġthor":9274,"Ġgaming":9275,"Ġstim":9276,"Ġheb":9277,"terior":9278,"thren":9279,"Ġalg":9280,"Ġruth":9281,"Ġdeer":9282,"Ġcomfort":9283,"Ġyor":9284,"Ġorange":9285,"Ġtrond":9286,"Ġcomponent":9287,"Ġclocks":9288,"Ġscorer":9289,"Ġmanual":9290,"Ġiowa":9291,"ricts":9292,"Ġinterstate":9293,"Ġgraves":9294,"Ġaccum":9295,"Ġacceler":9296,"Ġwarn":9297,"Ġcarn":9298,"Ġdescript":9299,"Ġedited":9300,"Ġsmoke":9301,"Ġcreutz":9302,"Ġzero":9303,"Ġdistances":9304,"Ġdistricts":9305,"Ġ174":9306,"Ġmetro":9307,"Ġextend":9308,"Ġpersons":9309,"Ġraik":9310,"Ġlinear":9311,"Ġslayer":9312,"Ġdirecting":9313,"anches":9314,"azer":9315,"Ġconfusion":9316,"Ġbrethren":9317,"Ġvictim":9318,"Ġtourism":9319,"Ġreplied":9320,"Ġfunny":9321,"Ġflew":9322,"Ġreportedly":9323,"Ġ240":9324,"Ġvegas":9325,"Ġhorror":9326,"Ġelectrical":9327,"Ġbirming":9328,"Ġmccar":9329,"Ġroller":9330,"Ġtennis":9331,"Ġarrangements":9332,"Ġkickoff":9333,"Ġrays":9334,"Ġrescued":9335,"Ġtouchdowns":9336,"Ġfastest":9337,"Ġhaitian":9338,"Ġskinner":9339,"Ġborrow":9340,"Ġpreserve":9341,"Ġvicinity":9342,"Ġcomprised":9343,"Ġhellbl":9344,"Ġreflecting":9345,"Ġvolunteer":9346,"Ġgregory":9347,"Ġbinh":9348,"Ġloverboy":9349,"Ġbanksia":9350,"Ġundertaken":9351,"Ġdisturbance":9352,"Ġmystery":9353,"Ġdependent":9354,"Ġabsorbed":9355,"Ġimplement":9356,"Ġalphab":9357,"Ġintegr":9358,"Ġbosn":9359,"Ġtickets":9360,"Ġpalmyrene":9361,"Ġsubtropical":9362,"Ġecclestone":9363,"Ġrestrictions":9364,"Ġisotopes":9365,"Ġrebellion":9366,"Ġdennis":9367,"konen":9368,"Ġmathemat":9369,"Ġgraphic":9370,"Ġzanzibar":9371,"Ġtokyo":9372,"Ġstaley":9373,"Ġbarbarian":9374,"Ġncaa":9375,"Ġtrondheim":9376,"Ġraikkonen":9377,"Ġbirmingham":9378,"Ġhellblazer":9379,"bel":9380,"cour":9381,"ever":9382,"gro":9383,"uine":9384,"yers":9385,"zona":9386,"Ġtrough":9387,"Ġtrend":9388,"Ġaub":9389,"inness":9390,"Ġorib":9391,"Ġsending":9392,"unes":9393,"Ġful":9394,"Ġpam":9395,"alf":9396,"Ġdancing":9397,"Ġhitting":9398,"Ġlone":9399,"Ġlind":9400,"Ġthak":9401,"Ġgender":9402,"Ġstern":9403,"uras":9404,"urance":9405,"veland":9406,"Ġhearing":9407,"olence":9408,"ctive":9409,"Ġatop":9410,"ulous":9411,"romet":9412,"Ġkids":9413,"Ġvital":9414,"agu":9415,"Ġyd":9416,"Ġshim":9417,"arded":9418,"rite":9419,"Ġcompre":9420,"Ġworn":9421,"Ġintr":9422,"Ġaboard":9423,"Ġamyl":9424,"Ġmarie":9425,"arest":9426,"wned":9427,"achute":9428,"Ġpref":9429,"Ġprest":9430,"wegian":9431,"ilda":9432,"alsa":9433,"Ġgenuine":9434,"Ġnorwegian":9435,"Ġquiney":9436,"Ġparachute":9437,"Ġrelatives":9438,"Ġconsent":9439,"Ġmini":9440,"Ġminers":9441,"Ġhighland":9442,"Ġlocally":9443,"Ġcaps":9444,"Ġsingh":9445,"Ġlaure":9446,"Ġzagre":9447,"Ġvariations":9448,"Ġextending":9449,"Ġinsurg":9450,"Ġconcur":9451,"Ġconfession":9452,"Ġeaster":9453,"Ġdrinking":9454,"Ġlights":9455,"rows":9456,"Ġxe":9457,"Ġredes":9458,"ĠÂµ":9459,"Ġcurved":9460,"Ġcleveland":9461,"Ġbehalf":9462,"Ġbattlefield":9463,"Ġfreakum":9464,"Ġradar":9465,"Ġangle":9466,"Ġarguing":9467,"Ġ1901":9468,"Ġ1906":9469,"Ġpraising":9470,"ficial":9471,"Ġhollow":9472,"Ġconvict":9473,"Ġchapters":9474,"Ġpenet":9475,"Ġsquadrons":9476,"Ġtommy":9477,"Ġdenomin":9478,"Ġbusinesses":9479,"Ġderby":9480,"Ġescaped":9481,"Ġconcepts":9482,"Ġopposing":9483,"Ġconsistently":9484,"Ġliner":9485,"Ġcraf":9486,"Ġcrickets":9487,"Ġbombing":9488,"Ġmicroscop":9489,"Ġessentially":9490,"Ġpreparations":9491,"Ġextensively":9492,"Ġmanufacturing":9493,"Ġ1819":9494,"Ġexhibition":9495,"Ġwait":9496,"Ġrequirements":9497,"Ġdefinite":9498,"iscus":9499,"guard":9500,"Ġbatsmen":9501,"Ġbruce":9502,"Ġmatthew":9503,"Ġcambodian":9504,"Ġrubber":9505,"Ġexclusive":9506,"Ġsoftware":9507,"Ġarizona":9508,"Ġhughes":9509,"Ġantonio":9510,"Ġindigo":9511,"Ġreagan":9512,"Ġconquest":9513,"Ġcobra":9514,"Ġbeeton":9515,"Ġdisappoint":9516,"Ġhobbs":9517,"Ġkennedy":9518,"Ġcorbet":9519,"Ġcomplimented":9520,"Ġtubes":9521,"Ġensemble":9522,"Ġconjunction":9523,"Ġbarracks":9524,"Ġzagreb":9525,"fast":9526,"oly":9527,"tical":9528,"uar":9529,"Ġia":9530,"Ġak":9531,"inated":9532,"Ġsaving":9533,"Ġwake":9534,"Ġcow":9535,"Ġcott":9536,"Ġfits":9537,"Ġfaster":9538,"orage":9539,"Ġpushing":9540,"arm":9541,"Ġdat":9542,"Ġhong":9543,"Ġtools":9544,"Ġliao":9545,"Ġnaked":9546,"Ġreines":9547,"Ġgarn":9548,"Ġbeak":9549,"adi":9550,"Ġstro":9551,"Ġstick":9552,"urst":9553,"uration":9554,"olin":9555,"Ġalger":9556,"Ġrice":9557,"Ġbypass":9558,"Ġatlet":9559,"Ġdeals":9560,"Ġkyle":9561,"Ġvig":9562,"osity":9563,"Ġoral":9564,"Ġplains":9565,"Ġexceed":9566,"ante":9567,"Ġenorm":9568,"order":9569,"cles":9570,"Ġusers":9571,"Ġusual":9572,"Ġallocated":9573,"Ġcommenced":9574,"ogram":9575,"Ġsheep":9576,"Ġmarge":9577,"Ġserb":9578,"Ġpartington":9579,"Ġovert":9580,"Ġcentimetres":9581,"Ġsox":9582,"aceous":9583,"ensis":9584,"Ġgrain":9585,"Ġassy":9586,"Ġassum":9587,"Ġministers":9588,"Ġdoyle":9589,"Ġapply":9590,"Ġsimpl":9591,"Ġairborne":9592,"Ġrecept":9593,"Ġdecomm":9594,"phrey":9595,"Ġjohnny":9596,"Ġmature":9597,"Ġpersist":9598,"Ġadvised":9599,"Ġheading":9600,"Ġjustin":9601,"Ġhumphrey":9602,"Ġtracked":9603,"Ġcourses":9604,"Ġtempo":9605,"Ġexplore":9606,"asha":9607,"Ġswamp":9608,"Ġmilitia":9609,"Ġrede":9610,"Ġcompetitive":9611,"Ġ220":9612,"Ġ261":9613,"Ġmixing":9614,"Ġholoca":9615,"Ġdevice":9616,"Ġtested":9617,"Ġ1897":9618,"Ġpredicted":9619,"Ġmotif":9620,"Ġtombs":9621,"Ġdioc":9622,"Ġlacked":9623,"Ġtransported":9624,"Ġcommissioner":9625,"Ġpainter":9626,"Ġvenue":9627,"Ġ1878":9628,"Ġegyptians":9629,"Ġadminister":9630,"Ġconception":9631,"Ġborders":9632,"Ġdedication":9633,"Ġessay":9634,"Ġbeaten":9635,"Ġmultipl":9636,"Ġeuropa":9637,"Ġshrub":9638,"Ġneighb":9639,"ographical":9640,"Ġurania":9641,"Ġconcerning":9642,"Ġhouseholds":9643,"Ġvulcan":9644,"Ġlucas":9645,"Ġloyal":9646,"Ġkenneth":9647,"Ġnasa":9648,"Ġpioneer":9649,"Ġnapole":9650,"Ġconscious":9651,"Ġsteadily":9652,"Ġfuneral":9653,"Ġkyra":9654,"Ġasteroid":9655,"Ġadvertisements":9656,"Ġintellectual":9657,"Ġpagoda":9658,"Ġacoustic":9659,"Ġretrieved":9660,"Ġbrenda":9661,"Ġatletico":9662,"Ġholocaust":9663,"dy":9664,"far":9665,"fly":9666,"parts":9667,"uters":9668,"wall":9669,"ym":9670,"»¿":9671,"Ġsank":9672,"Ġbishops":9673,"anville":9674,"Ġpm":9675,"Ġmol":9676,"Ġmate":9677,"Ġmong":9678,"arro":9679,"Ġdick":9680,"Ġliv":9681,"Ġlumin":9682,"Ġreward":9683,"Ġthai":9684,"Ġgay":9685,"Ġeating":9686,"Ġety":9687,"Ġwaste":9688,"Ġstyl":9689,"irts":9690,"olis":9691,"Ġalfa":9692,"utch":9693,"uther":9694,"Ġrar":9695,"Ġria":9696,"Ġitem":9697,"Ġchi":9698,"Ġchop":9699,"Ġkw":9700,"andra":9701,"Ġvow":9702,"Ġproceeded":9703,"ifeng":9704,"Ġyang":9705,"Ġnep":9706,"Ġpled":9707,"Ġplacing":9708,"ighters":9709,"Ġleaf":9710,"Ġunrest":9711,"Ġenforce":9712,"ocy":9713,"acks":9714,"Ġcomprom":9715,"arya":9716,"Ġbutter":9717,"hedruli":9718,"Ġresur":9719,"Ġ1800":9720,"Ġsponso":9721,"Ġimb":9722,"wny":9723,"active":9724,"Ġcanals":9725,"Ġload":9726,"Ġloop":9727,"Ġflot":9728,"Ġassert":9729,"Ġwarned":9730,"Ġwarfare":9731,"Ġquiet":9732,"Ġspeculation":9733,"Ġretain":9734,"Ġstudying":9735,"Ġrepairs":9736,"Ġportions":9737,"Ġ169":9738,"Ġdistant":9739,"Ġaustrian":9740,"Ġcommanding":9741,"Ġslopes":9742,"Ġmagical":9743,"aza":9744,"Ġlegends":9745,"Ġvisits":9746,"Ġglanville":9747,"Ġstorylines":9748,"Ġvillaret":9749,"Ġmarking":9750,"Ġexperts":9751,"Ġobsc":9752,"Ġsuperman":9753,"Ġangry":9754,"Ġnavarro":9755,"Ġecu":9756,"ernoot":9757,"Ġafricaine":9758,"Ġlabyr":9759,"Ġargument":9760,"Ġcecil":9761,"Ġtawny":9762,"Ġconventional":9763,"Ġphilipp":9764,"obi":9765,"Ġfavou":9766,"Ġhomosexual":9767,"Ġfunded":9768,"Ġfloods":9769,"Ġeducational":9770,"Ġtalks":9771,"Ġminority":9772,"pani":9773,"Ġthreats":9774,"Ġhappen":9775,"Ġautobi":9776,"Ġapplications":9777,"Ġparticipants":9778,"Ġconstantly":9779,"Ġfranklin":9780,"Ġrussell":9781,"Ġcelebrate":9782,"Ġinvestigations":9783,"Ġapproaching":9784,"Ġignored":9785,"Ġsexuality":9786,"Ġexpressway":9787,"Ġgrasses":9788,"Ġconcentration":9789,"Ġarticles":9790,"Ġpriests":9791,"Ġqualifying":9792,"Ġkaifeng":9793,"Ġscholarship":9794,"Ġpolyt":9795,"Ġflagship":9796,"Ġconnections":9797,"Ġlloyd":9798,"Ġaltarpiece":9799,"Ġsurvivor":9800,"Ġvulner":9801,"Ġtroubles":9802,"Ġrecreational":9803,"Ġcalculated":9804,"Ġquoted":9805,"Ġlicens":9806,"Ġsummary":9807,"Ġgraham":9808,"Ġchallenging":9809,"Ġlancaster":9810,"Ġinaugural":9811,"Ġexhausted":9812,"Ġtributaries":9813,"Ġbaptist":9814,"Ġinsects":9815,"Ġcoffee":9816,"Ġpatriarch":9817,"Ġcondemned":9818,"Ġcantrell":9819,"Ġcharmbrace":9820,"Ġdensity":9821,"Ġmkhedruli":9822,"Ġï»¿":9823,"Ġvandernoot":9824,"Ġdeclaration":9825,"Ġhebrew":9826,"Ġborrowed":9827,"Ġetym":9828,"Ġsponsored":9829,"Ġlabyrinth":9830,"Ġcharmbracelet":9831,"feller":9832,"gud":9833,"htw":9834,"lane":9835,"nall":9836,"rh":9837,"wick":9838,"Ġties":9839,"Ġtorn":9840,"Ġtheore":9841,"eration":9842,"Ġsina":9843,"Ġwno":9844,"Ġbilly":9845,"Ġfab":9846,"atum":9847,"Ġpc":9848,"Ġpu":9849,"Ġmv":9850,"Ġment":9851,"aria":9852,"arged":9853,"Ġds":9854,"Ġdying":9855,"Ġhaz":9856,"icians":9857,"Ġlt":9858,"Ġgiel":9859,"ilis":9860,"Ġbeer":9861,"Ġstere":9862,"Ġstall":9863,"olics":9864,"Ġrivals":9865,"Ġisles":9866,"Ġvint":9867,"Ġmoist":9868,"Ġmock":9869,"Ġshock":9870,"Ġlect":9871,"Ġleices":9872,"Ġunre":9873,"Ġunless":9874,"Ġarn":9875,"Ġclergy":9876,"Ġbutton":9877,"Ġmanage":9878,"Ġamend":9879,"place":9880,"Ġnoise":9881,"Ġdesper":9882,"Ġspore":9883,"Ġovers":9884,"Ġfinest":9885,"kefeller":9886,"Ġcentered":9887,"ibilities":9888,"Ġindolence":9889,"Ġbrun":9890,"Ġbristol":9891,"rible":9892,"Ġknocked":9893,"Ġwarship":9894,"Ġundergo":9895,"Ġcarriage":9896,"Ġbuff":9897,"Ġbuoys":9898,"Ġmonit":9899,"Ġlarry":9900,"Ġdozen":9901,"Ġincur":9902,"Ġsurpass":9903,"Ġedit":9904,"Ġdecide":9905,"Ġ106":9906,"Ġreporter":9907,"Ġtransits":9908,"erto":9909,"Ġshipments":9910,"uedoc":9911,"Ġaustro":9912,"Ġaustria":9913,"Ġpassages":9914,"Ġroadway":9915,"Ġraw":9916,"Ġslave":9917,"Ġelgin":9918,"Ġlegit":9919,"Ġpromise":9920,"Ġtrium":9921,"Ġhumor":9922,"Ġtracking":9923,"Ġprogressed":9924,"Ġexplaining":9925,"Ġsimilarities":9926,"Ġteleph":9927,"Ġtraditions":9928,"Ġreplacing":9929,"Ġpoliticians":9930,"Ġangles":9931,"Ġhook":9932,"Ġwanting":9933,"Ġeighteen":9934,"Ġtreas":9935,"Ġviadu":9936,"Ġdestroying":9937,"Ġ1904":9938,"Ġtravels":9939,"Ġlanguedoc":9940,"Ġlyrical":9941,"Ġgrows":9942,"Ġsanct":9943,"Ġmemorable":9944,"Ġberhtw":9945,"Ġimprovement":9946,"Ġsalary":9947,"Ġflows":9948,"Ġdeterior":9949,"Ġscreens":9950,"Ġcatholics":9951,"Ġhoping":9952,"Ġimagery":9953,"Ġintersects":9954,"Ġbeds":9955,"Ġemotions":9956,"Ġpermanently":9957,"Ġtruly":9958,"Ġcolours":9959,"Ġganges":9960,"Ġbelonging":9961,"claimed":9962,"Ġfragments":9963,"Ġurged":9964,"Ġdevoted":9965,"Ġvertices":9966,"point":9967,"Ġsurrendered":9968,"Ġicon":9969,"Ġgraduate":9970,"Ġwitnesses":9971,"Ġbesides":9972,"Ġoccasional":9973,"Ġbhair":9974,"Ġlambe":9975,"Ġpublishers":9976,"Ġwicket":9977,"Ġstretched":9978,"Ġsailors":9979,"Ġronald":9980,"Ġtasks":9981,"hua":9982,"Ġqedarites":9983,"Ġrepeatedly":9984,"Ġexercise":9985,"Ġrockefeller":9986,"Ġmysterious":9987,"Ġprospect":9988,"Ġconsumption":9989,"Ġjumping":9990,"Ġulster":9991,"Ġventure":9992,"Ġincomple":9993,"Ġjackrabbit":9994,"Ġsupernatural":9995,"Ġglee":9996,"Ġsupplement":9997,"Ġteammate":9998,"Ġdiplomatic":9999,"Ġinnocent":10000,"Ġliquid":10001,"Ġgathered":10002,"Ġnelson":10003,"Ġyorkshire":10004,"Ġauburn":10005,"Ġsinai":10006,"Ġgielgud":10007,"Ġleicester":10008,"Ġviaduct":10009,"Ġberhtwald":10010,"ais":10011,"gans":10012,"kner":10013,"la":10014,"lical":10015,"tle":10016,"taceous":10017,"Ġurg":10018,"ĨĴ":10019,"Ġtort":10020,"Ġwol":10021,"Ġcres":10022,"Ġcock":10023,"Ġcps":10024,"Ġbm":10025,"Ġfart":10026,"Ġfighter":10027,"itious":10028,"Ġpel":10029,"Ġpest":10030,"isp":10031,"Ġmes":10032,"Ġmast":10033,"Ġmond":10034,"Ġmild":10035,"Ġdia":10036,"Ġdressed":10037,"Ġgack":10038,"Ġgains":10039,"omura":10040,"Ġbeau":10041,"Ġstability":10042,"eld":10043,"ulkner":10044,"Ġkle":10045,"Ġvib":10046,"agen":10047,"osy":10048,"Ġyam":10049,"Ġnevada":10050,"Ġneolithic":10051,"Ġshallow":10052,"akim":10053,"Ġleban":10054,"Ġunex":10055,"ĠâĨĴ":10056,"ĠâĢ¦":10057,"Ġwheel":10058,"Ġcler":10059,"Ġcliff":10060,"Ġadequ":10061,"Ġscots":10062,"Ġoffs":10063,"Ġoutd":10064,"angular":10065,"Ġindoor":10066,"Ġknock":10067,"Ġopined":10068,"issions":10069,"Ġendors":10070,"Ġsyad":10071,"Ġbrood":10072,"Ġguar":10073,"Ġeditions":10074,"Ġ04":10075,"Ġcretaceous":10076,"Ġmills":10077,"anka":10078,"Ġ116":10079,"Ġ118":10080,"Ġprovision":10081,"Ġsixty":10082,"Ġpreval":10083,"Ġbarre":10084,"Ġannals":10085,"Ġcommandments":10086,"Ġpublicly":10087,"Ġturnp":10088,"Ġdestination":10089,"Ġbrigadier":10090,"Ġplanes":10091,"Ġplanets":10092,"Ġposts":10093,"Ġstatue":10094,"Ġcatal":10095,"Ġhumanitarian":10096,"Ġinvolves":10097,"Ġlimits":10098,"Ġceased":10099,"Ġguitarist":10100,"Ġwoodland":10101,"Ġfrontier":10102,"Ġcampaigns":10103,"Ġdevin":10104,"Ġturkey":10105,"Ġprocessing":10106,"Ġnarrator":10107,"Ġ1857":10108,"Ġestimates":10109,"Ġsymph":10110,"Ġfaulkner":10111,"Ġacceptable":10112,"Ġduet":10113,"Ġdealing":10114,"Ġobservers":10115,"Ġemployment":10116,"Ġathlete":10117,"Ġfriendship":10118,"Ġresponses":10119,"Ġseemingly":10120,"Ġmcn":10121,"Ġviolation":10122,"Ġukrain":10123,"Ġscreened":10124,"Ġscenar":10125,"Ġsubstance":10126,"Ġmontreal":10127,"Ġboyfriend":10128,"Ġcomplicated":10129,"Ġverses":10130,"Ġlinks":10131,"Ġjournalists":10132,"Ġshaft":10133,"Ġbradman":10134,"Ġkicked":10135,"Ġperfectly":10136,"Ġreserves":10137,"Ġjimmy":10138,"Ġfamiliar":10139,"Ġtonnes":10140,"Ġprecise":10141,"Ġtunnels":10142,"Ġrestaurants":10143,"ĠÃ¦":10144,"Ġdevotion":10145,"Ġfungi":10146,"Ġmythology":10147,"Ġminimal":10148,"Ġbernard":10149,"Ġtravelling":10150,"Ġsufficiently":10151,"Ġinstrumentation":10152,"rigue":10153,"Ġastronomers":10154,"Ġevacuated":10155,"Ġsynthesis":10156,"Ġrelegation":10157,"Ġgathering":10158,"Ġaxis":10159,"Ġsongwriter":10160,"Ġprohibited":10161,"Ġshifted":10162,"Ġaccommodate":10163,"Ġavoided":10164,"Ġrobinson":10165,"Ġremarkable":10166,"Ġbombardment":10167,"Ġyugoslavia":10168,"Ġpredominantly":10169,"Ġordinary":10170,"Ġrectangular":10171,"Ġelephant":10172,"Ġbombs":10173,"Ġsacked":10174,"Ġcontradict":10175,"Ġmaurice":10176,"Ġsiblings":10177,"Ġamphib":10178,"Ġintermediate":10179,"Ġprecipitation":10180,"Ġbiblical":10181,"Ġmccarthy":10182,"Ġshimomura":10183,"Ġgarnered":10184,"Ġenormous":10185,"Ġgacko":10186,"dam":10187,"faster":10188,"ygh":10189,"Ġted":10190,"Ġtai":10191,"Ġaided":10192,"ini":10193,"Ġsick":10194,"Ġwre":10195,"Ġcg":10196,"unc":10197,"Ġbour":10198,"itary":10199,"anks":10200,"Ġanat":10201,"Ġpok":10202,"Ġpond":10203,"Ġpfaster":10204,"Ġdal":10205,"inger":10206,"Ġtob":10207,"Ġlying":10208,"Ġrejo":10209,"Ġstabil":10210,"Ġford":10211,"oles":10212,"Ġrushed":10213,"Ġseam":10214,"Ġatp":10215,"Ġvist":10216,"rix":10217,"illas":10218,"aping":10219,"Ġplag":10220,"Ġenh":10221,"Ġenroll":10222,"Ġtran":10223,"oceratops":10224,"Ġcomputers":10225,"Ġscores":10226,"Ġmansion":10227,"Ġagar":10228,"Ġimposed":10229,"Ġfinance":10230,"Ġweigh":10231,"achment":10232,"Ġcolors":10233,"Ġcolomb":10234,"Ġremind":10235,"athy":10236,"Ġreleasing":10237,"Ġpoles":10238,"Ġpopulated":10239,"Ġportable":10240,"Ġuygh":10241,"Ġ172":10242,"Ġ154":10243,"Ġvaries":10244,"Ġvariable":10245,"Ġgoverned":10246,"Ġextends":10247,"Ġadvances":10248,"Ġconfidence":10249,"Ġcorrid":10250,"Ġhalted":10251,"aiman":10252,"Ġdemanded":10253,"Ġmorph":10254,"Ġrealised":10255,"Ġxbo":10256,"Ġxook":10257,"Ġcameo":10258,"Ġeveryday":10259,"Ġcaliber":10260,"Ġharmon":10261,"Ġwalks":10262,"Ġafford":10263,"Ġlimestone":10264,"Ġhym":10265,"Ġpredict":10266,"Ġcommentators":10267,"Ġcopper":10268,"Ġnaturally":10269,"Ġ1854":10270,"Ġ1856":10271,"Ġmemoir":10272,"Ġexecut":10273,"Ġcuts":10274,"Ġcruc":10275,"Ġsuspect":10276,"Ġcyclones":10277,"Ġmontfort":10278,"Ġ1848":10279,"Ġsenate":10280,"Ġcadets":10281,"Ġfoxes":10282,"Ġlearns":10283,"Ġpete":10284,"Ġpetition":10285,"Ġpowder":10286,"Ġfocusing":10287,"Ġscreenplay":10288,"Ġmalays":10289,"Ġlandscape":10290,"Ġwiscons":10291,"Ġalternate":10292,"Ġreformed":10293,"Ġsacrif":10294,"Ġweakening":10295,"Ġofferings":10296,"Ġjulian":10297,"Ġspotted":10298,"Ġphilosoph":10299,"Ġinducted":10300,"Ġoptions":10301,"Ġsensitive":10302,"Ġhighlighted":10303,"Ġimprovements":10304,"Ġhunters":10305,"Ġdwight":10306,"Ġgabri":10307,"Ġawareness":10308,"Ġimmigrants":10309,"Ġhypothes":10310,"Ġchallenges":10311,"Ġcollaborated":10312,"Ġnicholas":10313,"Ġsurprised":10314,"Ġnursery":10315,"Ġhelicopter":10316,"Ġrelieved":10317,"Ġgladstone":10318,"Ġpanther":10319,"Ġdisbanded":10320,"Ġdeliberately":10321,"Ġboule":10322,"Ġpakistan":10323,"Ġkosaku":10324,"Ġtherapy":10325,"Ġoribi":10326,"Ġdecommissioned":10327,"Ġnapoleon":10328,"Ġimbudo":10329,"Ġxbox":10330,"Ġwisconsin":10331,"dale":10332,"gom":10333,"halsa":10334,"rage":10335,"zo":10336,"Ġurn":10337,"inus":10338,"Ġsaints":10339,"Ġcable":10340,"Ġcattle":10341,"Ġfier":10342,"athetic":10343,"itic":10344,"itter":10345,"anelli":10346,"Ġpse":10347,"Ġpush":10348,"Ġmentions":10349,"Ġmhalsa":10350,"Ġdiverse":10351,"asters":10352,"Ġhab":10353,"Ġnus":10354,"ouli":10355,"Ġhein":10356,"Ġalde":10357,"elroy":10358,"Ġisn":10359,"etheless":10360,"ulating":10361,"Ġkatherine":10362,"agers":10363,"Ġorland":10364,"Ġexternal":10365,"Ġunw":10366,"Ġenabled":10367,"Ġtrinity":10368,"Ġcoaches":10369,"ours":10370,"Ġuser":10371,"Ġboil":10372,"Ġbohem":10373,"Ġbutt":10374,"Ġscrat":10375,"Ġintact":10376,"Ġperception":10377,"Ġplayable":10378,"Ġdisgu":10379,"Ġimar":10380,"ricus":10381,"Ġattending":10382,"Ġknee":10383,"Ġpron":10384,"Ġpray":10385,"Ġrelay":10386,"Ġspeculated":10387,"Ġmonaster":10388,"Ġmahes":10389,"Ġguards":10390,"Ġguinness":10391,"Ġappeals":10392,"Ġdescent":10393,"Ġsms":10394,"Ġaddressed":10395,"Ġdirections":10396,"Ġdecoration":10397,"Ġterry":10398,"Ġinvaded":10399,"Ġdivines":10400,"Ġmilk":10401,"Ġmetric":10402,"Ġ115":10403,"Ġvargas":10404,"Ġstrapping":10405,"Ġextant":10406,"Ġprovisions":10407,"Ġdamages":10408,"Ġrape":10409,"Ġrajam":10410,"Ġcrush":10411,"Ġelig":10412,"Ġhumpty":10413,"Ġblackie":10414,"Ġglam":10415,"Ġtempl":10416,"Ġaval":10417,"Ġmoro":10418,"ashire":10419,"Ġswing":10420,"Ġlawyer":10421,"Ġharris":10422,"Ġassociate":10423,"Ġpressed":10424,"Ġcompeted":10425,"Ġnavigation":10426,"Ġecology":10427,"Ġdeclaring":10428,"Ġarrives":10429,"Ġaffair":10430,"Ġwoods":10431,"Ġcasem":10432,"Ġknows":10433,"Ġfacade":10434,"Ġ1894":10435,"Ġ1898":10436,"Ġwallace":10437,"Ġnonetheless":10438,"Ġcommentary":10439,"Ġrecognize":10440,"Ġ1851":10441,"Ġestimate":10442,"Ġbergen":10443,"Ġ1881":10444,"Ġintervention":10445,"Ġsilk":10446,"Ġsnap":10447,"Ġdealt":10448,"Ġobserver":10449,"Ġrapids":10450,"Ġmosque":10451,"Ġmcelroy":10452,"Ġ1832":10453,"Ġpaying":10454,"Ġmontgom":10455,"Ġexamined":10456,"Ġferd":10457,"Ġrhode":10458,"Ġkicking":10459,"Ġportrayal":10460,"Ġcrowds":10461,"ometric":10462,"Ġcategories":10463,"Ġapartment":10464,"Ġconnects":10465,"Ġnickn":10466,"Ġexhibited":10467,"Ġdissipating":10468,"Ġganganelli":10469,"Ġtactical":10470,"Ġcomprising":10471,"Ġrituals":10472,"Ġmigration":10473,"Ġdarwin":10474,"Ġnazaire":10475,"Ġtelesco":10476,"Ġ737":10477,"Ġgabbar":10478,"Ġmarshal":10479,"Ġastronomical":10480,"Ġbrazilian":10481,"Ġkatia":10482,"Ġtransformed":10483,"Ġsidon":10484,"Ġpavn":10485,"Ġpreceding":10486,"Ġlancashire":10487,"Ġwelcome":10488,"Ġinterpretation":10489,"Ġreservoirs":10490,"Ġoverwhelming":10491,"khuri":10492,"Ġgusts":10493,"Ġharsh":10494,"Ġparanthodon":10495,"Ġbracknell":10496,"Ġhygromet":10497,"Ġguidance":10498,"Ġretaliation":10499,"Ġinternationally":10500,"Ġpresbyterian":10501,"Ġguinea":10502,"Ġtodd":10503,"Ġprestig":10504,"ĠÂµm":10505,"Ġpuerto":10506,"Ġincomplete":10507,"Ġnuskhuri":10508,"Ġorlando":10509,"Ġmahesh":10510,"Ġrajamouli":10511,"Ġmontgomery":10512,"Ġtelescope":10513,"Ġhygrometricus":10514,"found":10515,"hum":10516,"sky":10517,"ĠÎ":10518,"Ġarose":10519,"Ġthesis":10520,"Ġsag":10521,"Ġsull":10522,"reated":10523,"Ġware":10524,"Ġwished":10525,"Ġcakes":10526,"unning":10527,"Ġbunk":10528,"Ġbend":10529,"Ġfed":10530,"enged":10531,"Ġpt":10532,"Ġpill":10533,"Ġmak":10534,"Ġmaps":10535,"Ġlod":10536,"Ġloren":10537,"Ġnose":10538,"Ġnaut":10539,"Ġrever":10540,"Ġreverse":10541,"Ġgree":10542,"oma":10543,"amation":10544,"Ġbeth":10545,"adic":10546,"imer":10547,"Ġalignment":10548,"elago":10549,"Ġwhit":10550,"Ġvishn":10551,"Ġmood":10552,"Ġnea":10553,"ivan":10554,"apolis":10555,"Ġshall":10556,"season":10557,"Ġleagues":10558,"ocity":10559,"Ġcoat":10560,"Ġcoaster":10561,"ipelago":10562,"Ġherb":10563,"Ġabn":10564,"rah":10565,"Ġnewfound":10566,"Ġmarched":10567,"irect":10568,"Ġdisli":10569,"Ġfinn":10570,"Ġindirect":10571,"Ġsecular":10572,"Ġbrings":10573,"Ġblind":10574,"Ġasserted":10575,"Ġverd":10576,"Ġgenres":10577,"Ġquinn":10578,"Ġparrot":10579,"Ġmonten":10580,"Ġentert":10581,"Ġphyl":10582,"Ġrevenge":10583,"Ġtranscription":10584,"Ġbatting":10585,"veloped":10586,"Ġ1200":10587,"Ġmillions":10588,"Ġzones":10589,"Ġinvitation":10590,"Ġthoughts":10591,"Ġ111":10592,"Ġbarons":10593,"Ġinsisted":10594,"Ġpassenger":10595,"Ġhelm":10596,"Ġimpressive":10597,"Ġcrim":10598,"Ġreviewing":10599,"Ġmounts":10600,"Ġarchipelago":10601,"Ġorganic":10602,"Ġpositioned":10603,"Ġlightning":10604,"Ġrealistic":10605,"Ġtourists":10606,"Ġlowland":10607,"Ġskill":10608,"Ġparker":10609,"Ġdebt":10610,"Ġpointing":10611,"Ġradius":10612,"ovil":10613,"Ġfemin":10614,"Ġinvolve":10615,"Ġ1891":10616,"Ġhotels":10617,"Ġcircular":10618,"Ġdenmark":10619,"Ġhosts":10620,"Ġcardinals":10621,"Ġdrawings":10622,"Ġcommercially":10623,"Ġ1882":10624,"Ġsilent":10625,"Ġsnl":10626,"Ġ1865":10627,"Ġmuseums":10628,"Ġreactor":10629,"Ġinterviews":10630,"Ġinterviewed":10631,"Ġsituations":10632,"Ġoccupy":10633,"Ġcontempor":10634,"Ġlayers":10635,"Ġrobot":10636,"Ġdiscussing":10637,"Ġadopt":10638,"Ġcelebration":10639,"Ġscripts":10640,"rosaurus":10641,"Ġraymond":10642,"Ġratio":10643,"Ġpaths":10644,"Ġprinciple":10645,"Ġconfirm":10646,"Ġpulp":10647,"Ġsweep":10648,"Ġteachings":10649,"Ġfastra":10650,"Ġliberty":10651,"Ġelevated":10652,"Ġeleventh":10653,"Ġtorpedoes":10654,"Ġthrill":10655,"Ġweakness":10656,"Ġfragment":10657,"Ġkitc":10658,"Ġmariah":10659,"Ġcrusade":10660,"Ġllosa":10661,"Ġyeovil":10662,"Ġconsequence":10663,"Ġadaptations":10664,"Ġbeside":10665,"Ġplatforms":10666,"Ġeliminate":10667,"Ġdecrease":10668,"Ġstewie":10669,"Ġaccomplished":10670,"Ġpapal":10671,"Ġrandom":10672,"Ġseventeen":10673,"Ġgibson":10674,"Ġacknowledged":10675,"Ġbattlecruisers":10676,"Ġrafael":10677,"Ġmclaren":10678,"Ġreversed":10679,"Ġamazing":10680,"Ġinhabited":10681,"Ġsemifinals":10682,"Ġvelocity":10683,"Ġjenkins":10684,"Ġcovenant":10685,"Ġhampered":10686,"Ġalgernon":10687,"Ġfavourite":10688,"Ġmvp":10689,"Ġdiaz":10690,"Ġunexpected":10691,"Ġsullivan":10692,"Ġvishnu":10693,"Ġmontene":10694,"Ġphylogen":10695,"aired":10696,"cos":10697,"iors":10698,"oter":10699,"pack":10700,"zes":10701,"zhou":10702,"Ġtent":10703,"inis":10704,"Ġwu":10705,"Ġcats":10706,"Ġbag":10707,"Ġanger":10708,"isons":10709,"Ġmott":10710,"Ġdent":10711,"Ġdirt":10712,"ashes":10713,"asco":10714,"rols":10715,"Ġnig":10716,"Ġrena":10717,"Ġthread":10718,"Ġgig":10719,"Ġgren":10720,"Ġeli":10721,"entine":10722,"stable":10723,"stapp":10724,"adh":10725,"Ġstaged":10726,"Ġstorage":10727,"Ġhears":10728,"Ġforget":10729,"Ġask":10730,"iri":10731,"verning":10732,"thic":10733,"oto":10734,"Ġsean":10735,"Ġsear":10736,"Ġconce":10737,"Ġconso":10738,"Ġconceived":10739,"Ġkin":10740,"Ġkon":10741,"osph":10742,"emen":10743,"Ġmoth":10744,"oded":10745,"odium":10746,"istical":10747,"illes":10748,"ivation":10749,"Ġroost":10750,"Ġexterior":10751,"Ġunstable":10752,"Ġtract":10753,"Ġcoined":10754,"Ġcomparing":10755,"Ġfez":10756,"Ġfeared":10757,"Ġfears":10758,"Ġnewport":10759,"Ġnost":10760,"Ġresort":10761,"Ġdesired":10762,"Ġspelling":10763,"Ġspokes":10764,"Ġmeter":10765,"Ġgoverning":10766,"Ġgothic":10767,"Ġprel":10768,"Ġcentres":10769,"Ġindies":10770,"tsburgh":10771,"Ġblamed":10772,"Ġreminis":10773,"Ġaccus":10774,"Ġopens":10775,"Ġfiled":10776,"Ġverstapp":10777,"Ġrelax":10778,"Ġfract":10779,"Ġwinners":10780,"Ġnorthumber":10781,"Ġeps":10782,"Ġphosph":10783,"Ġfounding":10784,"Ġterr":10785,"Ġdeveloper":10786,"Ġdevelopments":10787,"Ġcompanion":10788,"Ġsignature":10789,"Ġ151":10790,"Ġpersisted":10791,"ostere":10792,"Ġadvocated":10793,"Ġefficient":10794,"Ġcommando":10795,"Ġelite":10796,"Ġconfused":10797,"Ġlasting":10798,"Ġcheese":10799,"Ġjanet":10800,"Ġhurt":10801,"Ġprogression":10802,"Ġantagon":10803,"ashi":10804,"Ġkiller":10805,"Ġswift":10806,"Ġpatrols":10807,"Ġmarkets":10808,"Ġharvest":10809,"Ġdebated":10810,"brush":10811,"Ġpalm":10812,"Ġcease":10813,"Ġdavies":10814,"Ġdiscovers":10815,"Ġfacult":10816,"Ġentirety":10817,"Ġ1896":10818,"Ġagrees":10819,"Ġidentical":10820,"Ġhonors":10821,"Ġlacks":10822,"alypt":10823,"Ġsymmet":10824,"Ġexciting":10825,"Ġcostumes":10826,"Ġexeter":10827,"Ġstaying":10828,"Ġ1862":10829,"Ġthompson":10830,"Ġmaryang":10831,"Ġrebel":10832,"castle":10833,"thodox":10834,"Ġvenge":10835,"Ġjudo":10836,"hensive":10837,"took":10838,"Ġdarkness":10839,"Ġdeeply":10840,"Ġparticipation":10841,"Ġbroadcasting":10842,"Ġfrequency":10843,"Ġjamie":10844,"Ġlogs":10845,"Ġcounteratt":10846,"Ġshaolin":10847,"Ġfocuses":10848,"ruption":10849,"Ġbombers":10850,"Ġdynam":10851,"Ġchemistry":10852,"Ġowing":10853,"Ġtargeted":10854,"Ġvocalist":10855,"bourne":10856,"Ġbobby":10857,"Ġbonus":10858,"Ġcertifications":10859,"Ġemotion":10860,"Ġfairly":10861,"Ġmessages":10862,"Ġnicknamed":10863,"Ġproposals":10864,"Ġexhibit":10865,"Ġdurham":10866,"Ġelementary":10867,"Ġemphasized":10868,"Ġbelonged":10869,"donald":10870,"Ġplumage":10871,"Ġwolfpack":10872,"Ġbruins":10873,"Ġclouds":10874,"Ġgraduated":10875,"Ġconstitutional":10876,"Ġkarl":10877,"Ġsubmarines":10878,"Ġsummit":10879,"Ġmutual":10880,"Ġcorresponding":10881,"Ġdrugs":10882,"Ġaffecting":10883,"Ġrecruited":10884,"Ġwarriors":10885,"Ġprinting":10886,"Ġenlisted":10887,"Ġcampbeltown":10888,"Ġskelet":10889,"Ġdownloadable":10890,"Ġhiatus":10891,"Ġlatest":10892,"Ġthrown":10893,"Ġcongregation":10894,"Ġmerchant":10895,"Ġforbidden":10896,"Ġfrigates":10897,"ipedia":10898,"Ġzombie":10899,"Ġmagdalen":10900,"Ġcameras":10901,"Ġbinding":10902,"Ġrendition":10903,"Ġenzymes":10904,"Ġconspir":10905,"Ġdispatched":10906,"Ġaggregate":10907,"Ġenthusi":10908,"Ġabbot":10909,"Ġwikipedia":10910,"Ġjohann":10911,"Ġneutrino":10912,"Ġthorough":10913,"Ġalphabet":10914,"Ġcomprehensive":10915,"Ġamylostere":10916,"Ġadministered":10917,"Ġnephew":10918,"Ġvulnerable":10919,"Ġmcnichol":10920,"Ġconsole":10921,"Ġreminiscent":10922,"Ġverstappen":10923,"Ġnorthumberland":10924,"bu":10925,"case":10926,"even":10927,"face":10928,"ien":10929,"iating":10930,"ko":10931,"nn":10932,"othy":10933,"zu":10934,"Ġtang":10935,"Ġtuck":10936,"Ġtiny":10937,"Ġtapes":10938,"Ġtzu":10939,"herent":10940,"inster":10941,"Ġoval":10942,"Ġsri":10943,"Ġbent":10944,"Ġbould":10945,"Ġfi":10946,"Ġfus":10947,"Ġinver":10948,"Ġpear":10949,"Ġpose":10950,"Ġmold":10951,"Ġdors":10952,"Ġhakim":10953,"icon":10954,"Ġlan":10955,"Ġlions":10956,"Ġlutz":10957,"Ġrevel":10958,"lected":10959,"Ġeug":10960,"lyn":10961,"Ġster":10962,"ighed":10963,"thrie":10964,"Ġalco":10965,"Ġrna":10966,"Ġconven":10967,"Ġconclus":10968,"Ġchances":10969,"Ġkub":10970,"Ġcomet":10971,"ested":10972,"riers":10973,"Ġprost":10974,"Ġproced":10975,"Ġproxim":10976,"Ġproof":10977,"Ġnearest":10978,"resco":10979,"Ġshaw":10980,"Ġrout":10981,"oping":10982,"Ġexile":10983,"Ġleinster":10984,"Ġunfort":10985,"Ġunesco":10986,"Ġenact":10987,"ordination":10988,"Ġboo":10989,"Ġclaws":10990,"Ġscope":10991,"Ġcommodore":10992,"Ġspy":10993,"Ġdisabled":10994,"Ġovercome":10995,"Ġcanons":10996,"izong":10997,"Ġjoan":10998,"Ġflown":10999,"Ġbloom":11000,"Ġregulation":11001,"issart":11002,"Ġquit":11003,"Ġcarrier":11004,"Ġmining":11005,"Ġsyria":11006,"Ġdoors":11007,"icken":11008,"Ġsubordin":11009,"Ġincred":11010,"Ġguthrie":11011,"Ġdecis":11012,"Ġ108":11013,"Ġpopul":11014,"phy":11015,"Ġ167":11016,"Ġcomplement":11017,"Ġbaron":11018,"Ġromance":11019,"Ġcourage":11020,"Ġglac":11021,"Ġpossessed":11022,"nery":11023,"Ġexplored":11024,"Ġmoritz":11025,"Ġrefuses":11026,"Ġmonthly":11027,"Ġhandle":11028,"Ġhandling":11029,"Ġlawsu":11030,"Ġtotally":11031,"Ġsuggestion":11032,"Ġlessons":11033,"Ġdebris":11034,"ovac":11035,"Ġstatues":11036,"Ġsummar":11037,"Ġhumanity":11038,"Ġcoastline":11039,"rett":11040,"Ġarguments":11041,"Ġtechnologies":11042,"Ġintroduces":11043,"adesh":11044,"Ġmicha":11045,"Ġcivilization":11046,"Ġholes":11047,"Ġtraditionally":11048,"Ġ1893":11049,"Ġ1899":11050,"Ġstriker":11051,"Ġsexually":11052,"Ġcopia":11053,"Ġrounded":11054,"Ġacceptance":11055,"Ġcontracts":11056,"Ġruins":11057,"Ġclearing":11058,"Ġ1874":11059,"Ġmurphy":11060,"Ġpoetic":11061,"Ġsubjected":11062,"boro":11063,"Ġsamples":11064,"Ġambition":11065,"Ġoxide":11066,"Ġbreeds":11067,"Ġhairan":11068,"Ġferr":11069,"Ġdumpty":11070,"Ġrowley":11071,"Ġgaoz":11072,"Ġcrowns":11073,"Ġunde":11074,"Ġsoviets":11075,"Ġdrummer":11076,"Ġbonds":11077,"Ġbullet":11078,"Ġsymbols":11079,"Ġintelligent":11080,"Ġdemonstration":11081,"Ġexpeditions":11082,"Ġkrist":11083,"Ġextraordin":11084,"Ġspectrum":11085,"Ġshelter":11086,"Ġmdot":11087,"Ġingram":11088,"Ġlabeled":11089,"Ġattendance":11090,"Ġcoalition":11091,"Ġencounters":11092,"Ġcarlos":11093,"Ġunusually":11094,"Ġellis":11095,"Ġprompting":11096,"Ġwitnessed":11097,"Ġbernissart":11098,"Ġupdate":11099,"Ġframework":11100,"Ġjoshua":11101,"Ġmistaken":11102,"Ġdeposits":11103,"Ġinstrumental":11104,"Ġexplosive":11105,"Ġlisteners":11106,"Ġprosecution":11107,"Ġimplemented":11108,"Ġcrusader":11109,"Ġinteg":11110,"Ġexhaust":11111,"Ġanswer":11112,"Ġlithuan":11113,"Ġoverwhelmed":11114,"Ġresignation":11115,"Ġfrigate":11116,"Ġabundant":11117,"Ġabundance":11118,"Ġobstacles":11119,"Ġplayoffs":11120,"Ġturbines":11121,"Ġrendered":11122,"Ġfertil":11123,"Ġcurtis":11124,"Ġchanology":11125,"oplasm":11126,"Ġdescriptions":11127,"Ġiaaf":11128,"Ġtriumph":11129,"Ġtelephone":11130,"Ġsanctuary":11131,"Ġbhairava":11132,"Ġturnpike":11133,"Ġvistara":11134,"Ġaldean":11135,"Ġscratch":11136,"Ġnickname":11137,"Ġlutzow":11138,"Ġproximity":11139,"Ġunfortun":11140,"Ġgaozong":11141,"aic":11142,"ders":11143,"fire":11144,"iates":11145,"tory":11146,"uen":11147,"uania":11148,"wal":11149,"ĺī":11150,"Ġtides":11151,"inand":11152,"inich":11153,"eria":11154,"Ġoke":11155,"rect":11156,"Ġcyl":11157,"Ġfu":11158,"Ġfoul":11159,"Ġfighters":11160,"itudes":11161,"Ġingr":11162,"oric":11163,"Ġpor":11164,"Ġpesh":11165,"isations":11166,"alous":11167,"alph":11168,"Ġdup":11169,"Ġdining":11170,"Ġhood":11171,"Ġlem":11172,"Ġnok":11173,"Ġthail":11174,"leans":11175,"Ġgale":11176,"Ġgolf":11177,"Ġgendar":11178,"sts":11179,"acements":11180,"Ġstress":11181,"igon":11182,"Ġrud":11183,"Ġriff":11184,"Ġralph":11185,"Ġitv":11186,"Ġseated":11187,"ulates":11188,"Ġkam":11189,"Ġkaiman":11190,"umar":11191,"Ġorleans":11192,"Ġroby":11193,"Ġexchang":11194,"Ġleo":11195,"Ġunity":11196,"Ġuncom":11197,"Ġâĺī":11198,"clamation":11199,"Ġadrian":11200,"Ġmano":11201,"Ġmarily":11202,"Ġspo":11203,"Ġspoken":11204,"Ġfoster":11205,"ressions":11206,"Ġloch":11207,"Ġjoins":11208,"Ġflair":11209,"enson":11210,"Ġremake":11211,"Ġrelied":11212,"Ġcarroll":11213,"Ġfran":11214,"Ġsaigon":11215,"Ġliam":11216,"Ġempty":11217,"Ġmonica":11218,"Ġsyl":11219,"Ġsynd":11220,"Ġretreated":11221,"Ġsuburb":11222,"Ġguided":11223,"sson":11224,"Ġnumbering":11225,"Ġdeciding":11226,"Ġ102":11227,"Ġrepet":11228,"Ġtransmitted":11229,"Ġ129":11230,"Ġterrible":11231,"Ġinvent":11232,"itsu":11233,"Ġlandmark":11234,"Ġmets":11235,"Ġmetaph":11236,"Ġ156":11237,"Ġinsult":11238,"Ġhelen":11239,"Ġsteg":11240,"Ġmedic":11241,"Ġslaves":11242,"anche":11243,"Ġconfron":11244,"Ġtopological":11245,"Ġorganisations":11246,"Ġdrunk":11247,"Ġdragon":11248,"Ġswallow":11249,"Ġerror":11250,"Ġpatients":11251,"racted":11252,"Ġcurve":11253,"Ġjealous":11254,"Ġsupervis":11255,"Ġangl":11256,"Ġtroop":11257,"Ġcompeting":11258,"Ġfortress":11259,"Ġdonations":11260,"Ġpalmer":11261,"arnation":11262,"Ġspecialized":11263,"Ġ1892":11264,"Ġgalax":11265,"Ġaveraged":11266,"Ġcellular":11267,"Ġroundab":11268,"Ġ1859":11269,"Ġtribe":11270,"Ġseparately":11271,"Ġimproving":11272,"Ġmaternal":11273,"Ġstopping":11274,"Ġrebbie":11275,"Ġnormand":11276,"Ġmcm":11277,"Ġsuspected":11278,"Ġjudith":11279,"Ġranger":11280,"Ġdomnall":11281,"Ġjerry":11282,"Ġpreventing":11283,"Ġbloody":11284,"Ġconstantin":11285,"Ġcelebrity":11286,"Ġdispersed":11287,"Ġconsiderably":11288,"Ġlifted":11289,"Ġchallenged":11290,"Ġimagination":11291,"Ġkinds":11292,"Ġprinciples":11293,"uki":11294,"Ġintersections":11295,"Ġremixes":11296,"Ġmanufactured":11297,"Ġliberation":11298,"Ġghat":11299,"Ġjulio":11300,"Ġuncover":11301,"Ġfunctional":11302,"Ġcooking":11303,"Ġminerals":11304,"Ġstrikeouts":11305,"echobe":11306,"umbered":11307,"Ġreflects":11308,"Ġdistinguish":11309,"Ġbesie":11310,"Ġsegments":11311,"Ġportraits":11312,"Ġjosh":11313,"Ġdisappear":11314,"Ġseventeenth":11315,"Ġstreams":11316,"Ġhemisp":11317,"Ġmuham":11318,"Ġhorizont":11319,"Ġjackrabbits":11320,"Ġmammal":11321,"Ġlithuania":11322,"Ġexpanding":11323,"Ġpersuaded":11324,"Ġdrafted":11325,"Ġassessment":11326,"Ġoverlap":11327,"Ġnineteenth":11328,"Ġbarely":11329,"Ġbootleg":11330,"Ġexcellent":11331,"Ġphenomenon":11332,"Ġrookie":11333,"Ġsaxon":11334,"Ġbuddhist":11335,"Ġredesign":11336,"Ġcrafts":11337,"Ġmultiplayer":11338,"Ġetymology":11339,"Ġsyadvada":11340,"Ġcrucial":11341,"Ġfierce":11342,"Ġferdinand":11343,"Ġlorenzo":11344,"Ġnewfoundland":11345,"Ġcrimson":11346,"Ġokeechobe":11347,"Ġingrid":11348,"Ġpeshkin":11349,"Ġthailand":11350,"Ġkaimanawa":11351,"Ġrobyn":11352,"Ġmarilyn":11353,"Ġhemisphere":11354,"Ġokeechobee":11355,"aj":11356,"fu":11357,"hist":11358,"jing":11359,"kamed":11360,"lore":11361,"mem":11362,"mals":11363,"nan":11364,"nas":11365,"nance":11366,"time":11367,"à¸":11368,"Ġã":11369,"Ġtren":11370,"Ġtune":11371,"Ġtends":11372,"Ġaqu":11373,"Ġaires":11374,"Ġwire":11375,"Ġbold":11376,"Ġflet":11377,"atra":11378,"enic":11379,"enos":11380,"itall":11381,"itars":11382,"Ġansel":11383,"Ġpamp":11384,"Ġpock":11385,"Ġmating":11386,"Ġdign":11387,"Ġdug":11388,"Ġdanc":11389,"Ġdrought":11390,"Ġdiction":11391,"Ġdads":11392,"Ġhide":11393,"Ġhond":11394,"Ġhoney":11395,"rog":11396,"Ġnit":11397,"Ġreass":11398,"Ġecl":11399,"ila":11400,"iland":11401,"ilogy":11402,"str":11403,"Ġstans":11404,"tha":11405,"elope":11406,"Ġrp":11407,"Ġry":11408,"Ġconvey":11409,"ether":11410,"Ġchile":11411,"Ġchasing":11412,"Ġcomair":11413,"estock":11414,"emark":11415,"Ġprobe":11416,"Ġsuez":11417,"ivorous":11418,"Ġrok":11419,"opy":11420,"berry":11421,"Ġtrilogy":11422,"ocation":11423,"Ġcove":11424,"astian":11425,"Ġcompart":11426,"clair":11427,"Ġclan":11428,"Ġscales":11429,"endolen":11430,"Ġafterward":11431,"Ġmanning":11432,"Ġrecount":11433,"Ġfever":11434,"Ġfeast":11435,"ports":11436,"Ġresolved":11437,"Ġserge":11438,"Ġagencies":11439,"Ġdisrupt":11440,"Ġprehist":11441,"Ġsoap":11442,"Ġindo":11443,"Ġindie":11444,"Ġsecuring":11445,"Ġbranches":11446,"Ġcharan":11447,"Ġflame":11448,"Ġremote":11449,"Ġthereby":11450,"Ġprayer":11451,"Ġemma":11452,"Ġbuenos":11453,"Ġnorthwestern":11454,"fting":11455,"Ġincons":11456,"Ġguitars":11457,"Ġsouthwestern":11458,"Ġdepends":11459,"Ġ126":11460,"phae":11461,"ounced":11462,"Ġinfected":11463,"Ġdistort":11464,"Ġcontinent":11465,"full":11466,"Ġbarnes":11467,"Ġcharacterised":11468,"Ġmidway":11469,"Ġconfessions":11470,"Ġgeological":11471,"Ġcoron":11472,"Ġvisions":11473,"Ġdemographic":11474,"Ġdelight":11475,"Ġdelano":11476,"Ġexplan":11477,"Ġexplorer":11478,"Ġvillain":11479,"Ġcommunists":11480,"Ġsolita":11481,"Ġtraders":11482,"Ġsuperst":11483,"Ġmanaging":11484,"Ġnights":11485,"Ġsitcom":11486,"Ġsummon":11487,"Ġtreason":11488,"Ġcomposers":11489,"Ġmodes":11490,"Ġcoupled":11491,"Ġceiling":11492,"Ġworksh":11493,"Ġfights":11494,"ogns":11495,"Ġpenal":11496,"Ġberg":11497,"Ġflora":11498,"Ġsalt":11499,"Ġ1888":11500,"Ġregardless":11501,"Ġcostume":11502,"restrial":11503,"Ġ355":11504,"Ġ1863":11505,"Ġsometime":11506,"Ġvenom":11507,"Ġ1877":11508,"Ġhospitall":11509,"Ġbreakdown":11510,"Ġcontrace":11511,"Ġ1836":11512,"Ġdissent":11513,"toire":11514,"Ġordnance":11515,"Ġfails":11516,"Ġhopes":11517,"Ġattractive":11518,"Ġtaxi":11519,"Ġinvestigate":11520,"Ġpilgr":11521,"Ġchannels":11522,"Ġthrows":11523,"Ġdiseases":11524,"Ġcanceled":11525,"Ġswept":11526,"Ġanthrop":11527,"Ġlegislative":11528,"Ġfolklore":11529,"Ġconcentrations":11530,"Ġincorporates":11531,"Ġmechanism":11532,"Ġkahn":11533,"Ġdurand":11534,"Ġneutron":11535,"Ġsupplied":11536,"Ġblockade":11537,"Ġcuba":11538,"Ġarcade":11539,"Ġleonardo":11540,"Ġcarty":11541,"Ġremnant":11542,"Ġ978":11543,"Ġunsuccessfully":11544,"Ġlicence":11545,"Ġgwendolen":11546,"Ġarikamed":11547,"Ġcontributions":11548,"Ġsinclair":11549,"Ġdemanding":11550,"Ġmirror":11551,"Ġcorrespondence":11552,"Ġachievements":11553,"Ġphilosopher":11554,"Ġenlarged":11555,"Ġrumors":11556,"Ġhemmem":11557,"Ġdetective":11558,"Ġbarbara":11559,"Ġnicholson":11560,"Ġtributary":11561,"Ġmammals":11562,"Ġhelicopters":11563,"Ġsarah":11564,"Ġattributes":11565,"Ġfrustrated":11566,"Ġmanufacturer":11567,"Ġparalympic":11568,"Ġfatalities":11569,"Ġdescendants":11570,"Ġatomic":11571,"Ġscandin":11572,"Ġrecalls":11573,"Ġdolls":11574,"Ġreopened":11575,"Ġrepertoire":11576,"Ġdiocese":11577,"Ġlivestock":11578,"Ġvintage":11579,"Ġcrescent":11580,"Ġscenario":11581,"Ġcorridor":11582,"Ġnautical":11583,"Ġfaculty":11584,"Ġanselm":11585,"Ġstansfield":11586,"Ġsolitaire":11587,"Ġarikamedu":11588,"die":11589,"dings":11590,"hor":11591,"jib":11592,"mith":11593,"pets":11594,"tovac":11595,"uct":11596,"uence":11597,"vial":11598,"Ġtension":11599,"Ġaids":11600,"hening":11601,"inces":11602,"Ġojib":11603,"Ġwc":11604,"Ġwanna":11605,"Ġcure":11606,"ede":11607,"Ġbree":11608,"Ġbug":11609,"enburg":11610,"Ġincl":11611,"orith":11612,"Ġpes":11613,"Ġdian":11614,"Ġdull":11615,"Ġdried":11616,"Ġhod":11617,"Ġhoys":11618,"Ġlon":11619,"Ġnam":11620,"Ġnme":11621,"Ġgia":11622,"Ġstump":11623,"Ġstolen":11624,"idae":11625,"verty":11626,"usa":11627,"ayana":11628,"Ġrim":11629,"Ġramp":11630,"Ġrico":11631,"Ġjunt":11632,"Ġchamb":11633,"Ġko":11634,"riet":11635,"ifest":11636,"Ġyl":11637,"Ġorton":11638,"Ġrouting":11639,"aba":11640,"abad":11641,"Ġeno":11642,"Ġenvel":11643,"Ġensu":11644,"Ġtruck":11645,"geon":11646,"avian":11647,"Ġclad":11648,"Ġclair":11649,"Ġworse":11650,"Ġapf":11651,"Ġtwelf":11652,"Ġherbert":11653,"Ġscr":11654,"Ġmanifest":11655,"Ġrespected":11656,"assy":11657,"Ġpoverty":11658,"Ġmeat":11659,"Ġmegan":11660,"Ġfinland":11661,"Ġweighed":11662,"Ġoutcome":11663,"Ġoutput":11664,"Ġwhenever":11665,"Ġinterception":11666,"Ġinterrupted":11667,"iban":11668,"Ġmostar":11669,"Ġflaw":11670,"Ġsomebody":11671,"Ġblast":11672,"Ġblank":11673,"Ġassessed":11674,"alsock":11675,"Ġregulations":11676,"Ġrelating":11677,"Ġworker":11678,"Ġthanks":11679,"Ġrelevant":11680,"Ġemig":11681,"Ġmaid":11682,"Ġpreserv":11683,"Ġpolar":11684,"Ġediting":11685,"Ġeditors":11686,"Ġadds":11687,"Ġ103":11688,"Ġrepaired":11689,"Ġtermed":11690,"Ġcareers":11691,"Ġstrain":11692,"Ġprovinces":11693,"Ġmaturity":11694,"Ġdamaging":11695,"Ġannoy":11696,"Ġsupports":11697,"Ġconfident":11698,"Ġblackburn":11699,"Ġthirds":11700,"Ġlistening":11701,"Ġesp":11702,"Ġavtovac":11703,"Ġmorris":11704,"helor":11705,"Ġrequiring":11706,"Ġexperiments":11707,"Ġfarms":11708,"Ġcharting":11709,"Ġprojected":11710,"Ġroyston":11711,"Ġprofound":11712,"Ġflee":11713,"Ġtreasure":11714,"Ġfortified":11715,"Ġvett":11716,"Ġfacts":11717,"Ġcec":11718,"Ġreadily":11719,"Ġconviction":11720,"Ġdevil":11721,"Ġknowing":11722,"Ġsuffer":11723,"obile":11724,"Ġracial":11725,"Ġidentifies":11726,"Ġ1853":11727,"Ġ1858":11728,"Ġjewell":11729,"Ġcreature":11730,"Ġduarte":11731,"Ġ1885":11732,"Ġmerged":11733,"Ġcontracted":11734,"Ġobserve":11735,"Ġshoes":11736,"Ġwilf":11737,"Ġliterally":11738,"Ġchoos":11739,"Ġwilder":11740,"Ġsussex":11741,"Ġmaintains":11742,"Ġjudicial":11743,"Ġcommitment":11744,"Ġtheaters":11745,"Ġdropping":11746,"Ġdissolution":11747,"Ġambitious":11748,"Ġqi":11749,"Ġmrna":11750,"Ġconfluence":11751,"Ġdiscussions":11752,"Ġcomplained":11753,"Ġmortar":11754,"Ġ750":11755,"Ġversus":11756,"Ġfestivals":11757,"Ġremoving":11758,"Ġcatholicism":11759,"Ġpanels":11760,"omanry":11761,"Ġinvestigated":11762,"Ġcannon":11763,"Ġitalians":11764,"Ġvictorious":11765,"Ġmelanch":11766,"Ġmelbourne":11767,"Ġfantastic":11768,"Ġlifestyle":11769,"Ġnests":11770,"Ġrhymes":11771,"Ġbolton":11772,"Ġreserved":11773,"Ġphotography":11774,"Ġgraphs":11775,"Ġbells":11776,"writer":11777,"Ġcontacted":11778,"Ġdelays":11779,"Ġtanya":11780,"Ġorbital":11781,"Ġdeployment":11782,"Ġridic":11783,"Ġcomparative":11784,"Ġcomprises":11785,"Ġstrengthening":11786,"Ġkhoo":11787,"Ġcooler":11788,"Ġyeomanry":11789,"Ġthinks":11790,"Ġtraits":11791,"Ġmuslims":11792,"Ġeldest":11793,"Ġaccidentally":11794,"Ġmaple":11795,"Ġloyalty":11796,"Ġloyalsock":11797,"Ġrosberg":11798,"Ġfelicia":11799,"Ġdepictions":11800,"Ġbroncos":11801,"Ġexercised":11802,"Ġreflection":11803,"Ġrandy":11804,"Ġconducting":11805,"Ġdodo":11806,"Ġconquered":11807,"Ġproceeds":11808,"Ġflashback":11809,"Ġskeleton":11810,"Ġfloating":11811,"Ġacclaimed":11812,"Ġadvisory":11813,"Ġjennifer":11814,"Ġswitch":11815,"Ġprolong":11816,"Ġsprings":11817,"Ġgorilla":11818,"Ġimprisoned":11819,"Ġerrors":11820,"Ġmanufacturers":11821,"Ġparalympics":11822,"Ġnashville":11823,"Ġclusters":11824,"Ġumpire":11825,"Ġindonesian":11826,"Ġneighborhoods":11827,"Ġtrigger":11828,"Ġveteran":11829,"Ġveeru":11830,"Ġsketch":11831,"Ġalgorith":11832,"course":11833,"Ġassyrian":11834,"Ġriaa":11835,"Ġphilippines":11836,"Ġdesperate":11837,"Ġincursion":11838,"Ġfarther":11839,"Ġpokiri":11840,"Ġboulevard":11841,"Ġabnormal":11842,"Ġdisliked":11843,"Ġkitchen":11844,"Ġboulder":11845,"Ġeugene":11846,"Ġroutine":11847,"Ġlawsuit":11848,"Ġmichaels":11849,"Ġojibwe":11850,"Ġjunta":11851,"Ġchambers":11852,"Ġortona":11853,"Ġenvelope":11854,"Ġensuing":11855,"Ġtwelfth":11856,"Ġpreservation":11857,"Ġvettel":11858,"eit":11859,"fol":11860,"game":11861,"ggy":11862,"hanna":11863,"lf":11864,"mund":11865,"pher":11866,"say":11867,"yat":11868,"zing":11869,"Ġtamp":11870,"Ġtensions":11871,"Ġtheolog":11872,"Ġtheories":11873,"Ġowe":11874,"Ġsinking":11875,"Ġwer":11876,"Ġwan":11877,"Ġwang":11878,"Ġwemb":11879,"Ġcage":11880,"Ġcherry":11881,"Ġbite":11882,"Ġboca":11883,"Ġfau":11884,"aters":11885,"Ġpd":11886,"Ġpile":11887,"Ġmum":11888,"Ġmend":11889,"Ġdre":11890,"ingham":11891,"Ġhate":11892,"Ġhier":11893,"Ġhutch":11894,"Ġler":11895,"Ġlighter":11896,"Ġnfl":11897,"leted":11898,"Ġgif":11899,"Ġease":11900,"sters":11901,"Ġstiff":11902,"Ġhend":11903,"imol":11904,"usanag":11905,"elin":11906,"Ġrises":11907,"oted":11908,"otten":11909,"Ġsew":11910,"Ġseed":11911,"Ġchu":11912,"Ġchau":11913,"Ġket":11914,"Ġkod":11915,"Ġkusanag":11916,"rifield":11917,"employ":11918,"Ġmound":11919,"Ġplent":11920,"aki":11921,"ques":11922,"quet":11923,"Ġunic":11924,"Ġunemploy":11925,"Ġenable":11926,"Ġtraces":11927,"Ġcoy":11928,"avan":11929,"Ġscream":11930,"Ġintent":11931,"Ġintimate":11932,"Ġmaneu":11933,"uble":11934,"Ġrecapt":11935,"Ġperth":11936,"plain":11937,"Ġmarvel":11938,"Ġpartition":11939,"Ġspor":11940,"Ġspite":11941,"Ġspelled":11942,"Ġdisch":11943,"Ġdisorder":11944,"Ġcolored":11945,"Ġouts":11946,"angered":11947,"izers":11948,"Ġindians":11949,"Ġformations":11950,"Ġflav":11951,"Ġbeta":11952,"Ġbetray":11953,"Ġpeer":11954,"Ġpeggy":11955,"ensional":11956,"enshm":11957,"Ġverb":11958,"Ġundertook":11959,"Ġrelocated":11960,"Ġcarriages":11961,"Ġframes":11962,"Ġfranz":11963,"Ġactively":11964,"Ġsau":11965,"Ġendangered":11966,"Ġmonk":11967,"Ġdoof":11968,"Ġalbion":11969,"Ġalbeit":11970,"Ġsubf":11971,"Ġinstances":11972,"Ġ173":11973,"Ġmetals":11974,"Ġvariant":11975,"Ġaustin":11976,"Ġgerald":11977,"ylon":11978,"Ġraids":11979,"Ġmedley":11980,"Ġ131":11981,"Ġlegion":11982,"Ġexpense":11983,"Ġeastward":11984,"Ġbreast":11985,"Ġaccordingly":11986,"Ġcaptains":11987,"Ġcaptivity":11988,"Ġsocieties":11989,"Ġeasier":11990,"Ġbasal":11991,"Ġdrink":11992,"boat":11993,"quehanna":11994,"Ġinflicted":11995,"Ġcompetitor":11996,"Ġecosy":11997,"Ġaffection":11998,"Ġhamar":11999,"Ġfathers":12000,"Ġequally":12001,"Ġtestament":12002,"Ġvolcan":12003,"Ġodys":12004,"Ġoliver":12005,"Ġgalile":12006,"Ġnuclei":12007,"Ġchapman":12008,"Ġhomar":12009,"Ġcolonists":12010,"Ġcolonna":12011,"Ġquarters":12012,"Ġberm":12013,"Ġcollision":12014,"Ġseparation":12015,"Ġhardcover":12016,"Ġbrah":12017,"Ġmerrifield":12018,"Ġeducated":12019,"Ġadmits":12020,"Ġobserving":12021,"Ġreasoning":12022,"Ġruf":12023,"Ġshoots":12024,"Ġolivia":12025,"Ġneglected":12026,"Ġsusquehanna":12027,"Ġthreatening":12028,"Ġjudg":12029,"Ġphysically":12030,"Ġcontrary":12031,"Ġ1838":12032,"Ġsubstances":12033,"Ġ1847":12034,"Ġparticipating":12035,"Ġdigit":12036,"Ġvisitor":12037,"Ġoxid":12038,"jection":12039,"jections":12040,"Ġhairst":12041,"Ġconcludes":12042,"Ġmortimer":12043,"Ġironcl":12044,"Ġpetro":12045,"Ġrows":12046,"Ġ330":12047,"Ġthickness":12048,"Ġacquis":12049,"Ġacquire":12050,"Ġpleas":12051,"Ġhorns":12052,"Ġyellowstone":12053,"Ġsandy":12054,"Ġremixed":12055,"Ġwidth":12056,"Ġmunich":12057,"Ġfairies":12058,"Ġstanza":12059,"Ġdiego":12060,"Ġkentucky":12061,"Ġbelongs":12062,"Ġtactic":12063,"Ġembry":12064,"Ġoptim":12065,"Ġhighlights":12066,"irtz":12067,"Ġwarsaw":12068,"Ġmyths":12069,"Ġsuspic":12070,"Ġrodrigue":12071,"Ġgraduating":12072,"Ġelectricity":12073,"Ġluke":12074,"Ġkaram":12075,"Ġprotagonists":12076,"Ġmistake":12077,"Ġsailing":12078,"Ġhungary":12079,"Ġcruiserweight":12080,"swick":12081,"Ġunpop":12082,"Ġevacuation":12083,"Ġevacuate":12084,"Ġsubstantially":12085,"Ġmercy":12086,"Ġprosper":12087,"Ġdimensional":12088,"Ġjumps":12089,"Ġelderly":12090,"Ġdisappointed":12091,"Ġremembered":12092,"Ġsupernov":12093,"Ġgrip":12094,"Ġbattlecruiser":12095,"Ġfischer":12096,"Ġzombies":12097,"Ġchancel":12098,"Ġimprisonment":12099,"ÅĤaw":12100,"Ġdictator":12101,"Ġcoordinated":12102,"Ġforgotten":12103,"Ġswimming":12104,"Ġfacilit":12105,"Ġimmortal":12106,"Ġbleed":12107,"Ġsympathetic":12108,"Ġspawned":12109,"Ġmuscimol":12110,"Ġanticipated":12111,"Ġconcurrent":12112,"Ġluminosity":12113,"Ġchopin":12114,"Ġflotilla":12115,"Ġbrunswick":12116,"Ġwarships":12117,"Ġsymphony":12118,"Ġamphibious":12119,"Ġpseud":12120,"Ġverdict":12121,"Ġsymmetrical":12122,"Ġtucker":12123,"Ġalcohol":12124,"Ġferrari":12125,"Ġextraordinary":12126,"Ġlithuanian":12127,"Ġroundabout":12128,"Ġmuhamm":12129,"Ġwanyan":12130,"Ġwembley":12131,"Ġchauvel":12132,"Ġkusanagi":12133,"enshmirtz":12134,"Ġdoofenshmirtz":12135,"Ġecosystem":12136,"Ġrodriguez":12137,"bard":12138,"cade":12139,"cks":12140,"cair":12141,"contin":12142,"dish":12143,"dman":12144,"dick":12145,"gow":12146,"gna":12147,"hous":12148,"mates":12149,"numbered":12150,"riny":12151,"tures":12152,"vre":12153,"vann":12154,"xe":12155,"Ġtin":12156,"Ġtama":12157,"erod":12158,"Ġoath":12159,"Ġsf":12160,"Ġscl":12161,"Ġsink":12162,"onelli":12163,"Ġcort":12164,"Ġcatherine":12165,"iture":12166,"Ġinhib":12167,"Ġinex":12168,"orrh":12169,"Ġpent":12170,"Ġpand":12171,"Ġpenc":12172,"Ġpuck":12173,"Ġmits":12174,"esund":12175,"Ġdit":12176,"asgow":12177,"Ġlens":12178,"Ġlucky":12179,"Ġni":12180,"Ġnm":12181,"Ġnu":12182,"Ġnons":12183,"Ġreh":12184,"Ġreorgan":12185,"Ġthie":12186,"Ġthames":12187,"Ġgand":12188,"Ġgest":12189,"Ġgills":12190,"Ġeuc":12191,"oub":12192,"ompass":12193,"omyc":12194,"acon":12195,"acrit":12196,"Ġstunt":12197,"urt":12198,"vets":12199,"imination":12200,"olulu":12201,"ctic":12202,"Ġconif":12203,"Ġjai":12204,"Ġkab":12205,"Ġkend":12206,"Ġvh":12207,"Ġvague":12208,"heric":12209,"riatic":12210,"Ġmoody":12211,"apy":12212,"Ġplens":12213,"ople":12214,"sely":12215,"Ġleather":12216,"anti":12217,"quis":12218,"Ġunoff":12219,"Ġunlim":12220,"Ġtrace":12221,"Ġarama":12222,"ĠâĢĺ":12223,"Ġnotting":12224,"Ġcompiled":12225,"avis":12226,"Ġadriatic":12227,"ellor":12228,"Ġmans":12229,"Ġiber":12230,"Ġperc":12231,"Ġteaches":12232,"Ġnewark":12233,"Ġnewcastle":12234,"ogle":12235,"Ġmarble":12236,"Ġnobody":12237,"Ġpozz":12238,"areth":12239,"Ġupgr":12240,"Ġcoloured":12241,"acea":12242,"Ġloves":12243,"Ġlovers":12244,"Ġcharmed":12245,"Ġblame":12246,"Ġassign":12247,"Ġassured":12248,"Ġwarrant":12249,"Ġregained":12250,"Ġquake":12251,"Ġpradesh":12252,"Ġconsort":12253,"Ġfilmm":12254,"ugg":12255,"Ġenduring":12256,"Ġendemic":12257,"Ġspecially":12258,"Ġamericas":12259,"Ġcapcom":12260,"Ġepit":12261,"Ġphara":12262,"otherapy":12263,"Ġarmour":12264,"Ġschm":12265,"Ġzhang":12266,"Ġzriny":12267,"Ġinfilt":12268,"Ġ171":12269,"Ġmetacrit":12270,"annadh":12271,"Ġmatrix":12272,"Ġdiscour":12273,"Ġdiscontin":12274,"Ġinscribed":12275,"Ġmedway":12276,"Ġcollector":12277,"Ġcrimes":12278,"Ġgamesp":12279,"Ġ135":12280,"Ġmidnight":12281,"Ġmyel":12282,"Ġantib":12283,"Ġprototype":12284,"Ġessex":12285,"Ġgliders":12286,"Ġglasgow":12287,"Ġpossessions":12288,"Ġdelta":12289,"Ġvillagers":12290,"Ġpatroll":12291,"Ġtelecom":12292,"Ġsolve":12293,"Ġviewing":12294,"Ġtrademark":12295,"Ġissuing":12296,"Ġeverybody":12297,"Ġcalm":12298,"Ġreplay":12299,"Ġlowered":12300,"Ġclement":12301,"Ġparking":12302,"Ġassociations":12303,"Ġpittsburgh":12304,"Ġpitcair":12305,"Ġstatute":12306,"Ġhaunt":12307,"Ġ260":12308,"Ġgrandson":12309,"Ġfortifications":12310,"Ġintroduce":12311,"Ġbrowns":12312,"Ġsurvives":12313,"Ġturret":12314,"obonelli":12315,"shara":12316,"Ġpredator":12317,"Ġaveraging":12318,"Ġhonest":12319,"Ġencompass":12320,"Ġtribbles":12321,"Ġ1883":12322,"Ġstoppani":12323,"Ġcruzi":12324,"Ġconnie":12325,"Ġpractical":12326,"Ġeconomics":12327,"Ġsusan":12328,"Ġviolacea":12329,"Ġ1876":12330,"Ġjudged":12331,"Ġ1837":12332,"Ġoccupies":12333,"Ġpays":12334,"Ġtouching":12335,"Ġdiscusses":12336,"Ġbowlers":12337,"Ġaccessible":12338,"Ġensued":12339,"Ġfantuzz":12340,"Ġraton":12341,"Ġchemotherapy":12342,"Ġincorrect":12343,"Ġsavannah":12344,"Ġdressing":12345,"Ġprisoner":12346,"Ġeaten":12347,"Ġcooksey":12348,"Ġcomparable":12349,"Ġcollecting":12350,"Ġopted":12351,"Ġkingship":12352,"points":12353,"Ġjeffrey":12354,"Ġconsequences":12355,"Ġrubble":12356,"Ġmunicipality":12357,"Ġjosce":12358,"Ġfluid":12359,"Ġfeldman":12360,"Ġdecreased":12361,"Ġhuguen":12362,"Ġmercury":12363,"Ġdisturbed":12364,"Ġrecruit":12365,"Ġpredecessors":12366,"Ġexpectations":12367,"Ġmarcus":12368,"Ġladies":12369,"Ġdemolition":12370,"Ġmisunder":12371,"Ġsongwriting":12372,"Ġalpha":12373,"Ġsediment":12374,"Ġreprinted":12375,"Ġparasites":12376,"Ġpierre":12377,"Ġreproduction":12378,"Ġinnovative":12379,"Ġyugoslav":12380,"Ġdelegates":12381,"Ġprolific":12382,"Ġharsha":12383,"Ġgriff":12384,"Ġjagannadh":12385,"Ġpoisoning":12386,"Ġchancellor":12387,"Ġanalyzed":12388,"Ġtackle":12389,"Ġcomedian":12390,"Ġmicrosoft":12391,"Ġsatisfied":12392,"Ġpeckii":12393,"Ġchaos":12394,"Ġfossil":12395,"Ġtoxic":12396,"Ġaerodromes":12397,"Ġcelest":12398,"Ġjuveniles":12399,"Ġfriedrich":12400,"Ġexplicitly":12401,"Ġdefinitely":12402,"Ġstroke":12403,"Ġbutterfly":12404,"Ġtreasury":12405,"Ġadequate":12406,"Ġwreck":12407,"Ġagaric":12408,"Ġsaginaw":12409,"Ġgreece":12410,"Ġentertaining":12411,"Ġcontemporaries":12412,"Ġconstantinople":12413,"Ġfletcher":12414,"Ġreassigned":12415,"Ġsergeant":12416,"Ġinconsist":12417,"Ġcoronation":12418,"eroder":12419,"Ġscleroder":12420,"orrhiz":12421,"Ġmitsuda":12422,"Ġgandhi":12423,"Ġeucalypt":12424,"Ġplensa":12425,"Ġunlimited":12426,"Ġaramaic":12427,"Ġpozzobonelli":12428,"Ġpharaoh":12429,"Ġzrinyi":12430,"Ġmetacritic":12431,"Ġdiscontinued":12432,"Ġpitcairn":12433,"Ġfantuzzi":12434,"baland":12435,"count":12436,"ded":12437,"oth":12438,"oons":12439,"oina":12440,"rass":12441,"yen":12442,"Ġ*":12443,"Ġ~":12444,"Ġil":12445,"Ġtet":12446,"Ġtube":12447,"Ġay":12448,"Ġtheft":12449,"Ġsiber":12450,"Ġches":12451,"unge":12452,"Ġbach":12453,"Ġfunk":12454,"enh":12455,"ener":12456,"anim":12457,"Ġpom":12458,"Ġpum":12459,"Ġpist":12460,"isd":12461,"isible":12462,"esque":12463,"ali":12464,"Ġdil":12465,"Ġdard":12466,"asa":12467,"Ġtool":12468,"Ġtough":12469,"Ġnh":12470,"Ġrework":12471,"leki":12472,"Ġgag":12473,"Ġgry":12474,"story":12475,"omon":12476,"aman":12477,"Ġono":12478,"Ġbeaches":12479,"Ġbeaver":12480,"Ġstup":12481,"Ġstokes":12482,"imon":12483,"ctu":12484,"otal":12485,"Ġseize":12486,"Ġwhites":12487,"Ġbyron":12488,"Ġjung":12489,"Ġjoke":12490,"Ġchin":12491,"Ġkry":12492,"Ġvander":12493,"emi":12494,"Ġmoons":12495,"Ġproud":12496,"Ġproclaimed":12497,"Ġsuited":12498,"Ġorthodox":12499,"Ġplates":12500,"Ġplaza":12501,"Ġrog":12502,"Ġrovers":12503,"opol":12504,"Ġleaked":12505,"Ġunl":12506,"Ġunve":12507,"Ġunaware":12508,"Ġunanim":12509,"Ġtrucks":12510,"Ġhadros":12511,"Ġcompat":12512,"Ġcompact":12513,"Ġboost":12514,"Ġcla":12515,"Ġclaire":12516,"Ġaden":12517,"Ġapost":12518,"Ġtwicken":12519,"Ġcontents":12520,"Ġscap":12521,"ctioned":12522,"Ġabra":12523,"Ġabram":12524,"Ġmanages":12525,"Ġfees":12526,"Ġtears":12527,"Ġtimbaland":12528,"ogether":12529,"Ġsheet":12530,"arez":12531,"acht":12532,"Ġinterim":12533,"Ġspear":12534,"Ġloaded":12535,"Ġloading":12536,"Ġbraves":12537,"Ġcharitable":12538,"ensus":12539,"Ġgrid":12540,"Ġassume":12541,"Ġengaging":12542,"Ġundergr":12543,"Ġconsensus":12544,"Ġfringe":12545,"Ġembod":12546,"Ġmaori":12547,"Ġincidents":12548,"Ġphases":12549,"Ġdescended":12550,"Ġeddie":12551,"Ġ107":12552,"Ġ109":12553,"Ġinvisible":12554,"Ġui":12555,"Ġuleki":12556,"Ġcros":12557,"Ġshipped":12558,"Ġdiff":12559,"Ġvarieties":12560,"Ġgovernors":12561,"Ġextinction":12562,"uchi":12563,"Ġbark":12564,"Ġbarometric":12565,"Ġnationalist":12566,"Ġmedian":12567,"Ġslope":12568,"Ġslaver":12569,"Ġcrane":12570,"Ġshorts":12571,"Ġtopic":12572,"Ġtopics":12573,"Ġchef":12574,"Ġhurdles":12575,"Ġiran":12576,"Ġviscount":12577,"Ġglen":12578,"Ġglory":12579,"Ġauthored":12580,"Ġimported":12581,"Ġharass":12582,"Ġharvey":12583,"Ġcultures":12584,"Ġangered":12585,"Ġ217":12586,"Ġcompetitors":12587,"Ġcountryside":12588,"Ġhole":12589,"Ġactivated":12590,"Ġpurple":12591,"Ġtaunt":12592,"Ġtorch":12593,"Ġhyphae":12594,"Ġholland":12595,"Ġcamel":12596,"Ġelectro":12597,"Ġburrow":12598,"Ġodes":12599,"Ġhenri":12600,"Ġfavored":12601,"Ġtownsville":12602,"Ġidentification":12603,"Ġcirculated":12604,"Ġindividually":12605,"Ġinformal":12606,"Ġ1852":12607,"Ġrankings":12608,"Ġsatire":12609,"Ġinvestors":12610,"Ġ1866":12611,"Ġprivately":12612,"Ġescapes":12613,"iker":12614,"Ġ1872":12615,"Ġdomain":12616,"Ġdomoina":12617,"Ġscenic":12618,"Ġcontempl":12619,"Ġdegener":12620,"Ġambul":12621,"Ġtemperate":12622,"agonal":12623,"Ġcontrolling":12624,"Ġattraction":12625,"Ġhereford":12626,"Ġensured":12627,"Ġdisputes":12628,"Ġhuong":12629,"Ġspringfield":12630,"Ġpleased":12631,"Ġpuppets":12632,"world":12633,"Ġfinancially":12634,"Ġnesting":12635,"Ġpeaceful":12636,"Ġmurdered":12637,"Ġnorthwestward":12638,"Ġadvantages":12639,"Ġsymbolic":12640,"Ġanthology":12641,"Ġwebsites":12642,"Ġmanufacture":12643,"Ġbeneath":12644,"Ġjurisd":12645,"Ġillustrations":12646,"ographies":12647,"Ġkras":12648,"Ġencourage":12649,"Ġshelters":12650,"Ġaggress":12651,"Ġhibiscus":12652,"Ġcollective":12653,"Ġcollectively":12654,"Ġ550":12655,"Ġspeakers":12656,"Ġbrighton":12657,"Ġrivalry":12658,"Ġluis":12659,"Ġcontested":12660,"Ġstretch":12661,"Ġbinary":12662,"Ġcontribute":12663,"Ġsupporter":12664,"Ġdoctors":12665,"Ġhanging":12666,"Ġnomura":12667,"Ġdiscipline":12668,"Ġhindi":12669,"Ġhindenburg":12670,"Ġexpecting":12671,"Ġreagents":12672,"Ġ878":12673,"Ġrobertson":12674,"Ġancestry":12675,"Ġoriented":12676,"Ġannex":12677,"Ġornith":12678,"Ġrhodesia":12679,"Ġcorpse":12680,"Ġmetallic":12681,"Ġmetallica":12682,"Ġpalmyra":12683,"Ġadvisories":12684,"Ġconfederate":12685,"Ġhorizon":12686,"Ġcloth":12687,"Ġsurprising":12688,"Ġdiversity":12689,"Ġtriangle":12690,"Ġabolished":12691,"Ġaltogether":12692,"Ġdisagreed":12693,"Ġazores":12694,"Ġaccomplishments":12695,"Ġdiagnosis":12696,"Ġceremonial":12697,"Ġstaples":12698,"Ġexcluded":12699,"Ġbulgaria":12700,"Ġoverlooking":12701,"Ġtolerance":12702,"Ġeguchi":12703,"Ġlauren":12704,"Ġdenomination":12705,"Ġconsciousness":12706,"Ġcompromise":12707,"Ġresurre":12708,"Ġanglesey":12709,"Ġlebanon":12710,"Ġenhance":12711,"Ġmalaysia":12712,"Ġphilosophical":12713,"Ġboilers":12714,"Ġmonastery":12715,"Ġthriller":12716,"Ġepsom":12717,"Ġprostit":12718,"Ġsylv":12719,"Ġwcw":12720,"Ġcecily":12721,"Ġpompe":12722,"Ġkrypton":12723,"Ġhadrosaur":12724,"Ġtwickenham":12725,"Ġabraham":12726,"Ġundergradu":12727,"Ġslavery":12728,"bit":12729,"bro":12730,"cence":12731,"cach":12732,"hin":12733,"kary":12734,"lies":12735,"mo":12736,"oves":12737,"uhan":12738,"wa":12739,"yden":12740,"ģĦ":12741,"Ġtum":12742,"Ġtrench":12743,"Ġtamil":12744,"Ġaot":12745,"Ġaria":12746,"instein":12747,"erts":12748,"Ġshed":12749,"Ġsper":12750,"Ġwwe":12751,"onts":12752,"Ġcree":12753,"Ġbub":12754,"Ġbry":12755,"Ġbann":12756,"Ġfile":12757,"Ġfission":12758,"Ġinari":12759,"asma":12760,"Ġhack":12761,"Ġtouc":12762,"Ġnf":12763,"Ġnag":12764,"Ġnancy":12765,"Ġreef":12766,"iliers":12767,"stock":12768,"adir":12769,"acco":12770,"Ġstained":12771,"Ġstair":12772,"Ġstored":12773,"veer":12774,"olph":12775,"verly":12776,"Ġalarm":12777,"Ġrings":12778,"Ġseal":12779,"Ġconvert":12780,"Ġjill":12781,"Ġjave":12782,"Ġjtw":12783,"Ġatoms":12784,"Ġkashi":12785,"Ġvest":12786,"Ġmoored":12787,"Ġpla":12788,"Ġplacement":12789,"Ġplasma":12790,"opp":12791,"arta":12792,"Ġexempt":12793,"bern":12794,"berger":12795,"ĠâģĦ":12796,"Ġarbe":12797,"Ġarrows":12798,"ackdown":12799,"Ġnotion":12800,"Ġnotices":12801,"Ġcoordination":12802,"Ġafraid":12803,"ellation":12804,"Ġscrib":12805,"solete":12806,"Ġamun":12807,"pling":12808,"Ġnobel":12809,"Ġdeser":12810,"Ġaging":12811,"Ġspans":12812,"Ġspont":12813,"Ġdisney":12814,"Ġoverr":12815,"Ġweyden":12816,"Ġcolin":12817,"cedes":12818,"Ġflatt":12819,"Ġflint":12820,"Ġblake":12821,"Ġremaster":12822,"Ġunderlying":12823,"Ġpruss":12824,"Ġreluct":12825,"Ġseasonal":12826,"Ġemin":12827,"Ġbuoy":12828,"Ġwinston":12829,"Ġmonks":12830,"Ġmonitors":12831,"Ġdoo":12832,"Ġpublish":12833,"Ġsubd":12834,"aney":12835,"Ġedmund":12836,"Ġairing":12837,"Ġsmackdown":12838,"Ġlongacre":12839,"Ġperforms":12840,"Ġcream":12841,"Ġmillimeter":12842,"Ġinvented":12843,"Ġestates":12844,"Ġestuary":12845,"Ġobsolete":12846,"Ġuh":12847,"Ġsignals":12848,"Ġcarefully":12849,"Ġbelle":12850,"Ġkeen":12851,"Ġdiscarded":12852,"Ġinsurance":12853,"Ġanywhere":12854,"Ġmajors":12855,"Ġslated":12856,"Ġpublicity":12857,"Ġwaterway":12858,"Ġtrips":12859,"Ġhumorous":12860,"Ġwayne":12861,"Ġchester":12862,"Ġhuron":12863,"Ġirrig":12864,"Ġantilles":12865,"Ġdemo":12866,"beat":12867,"Ġdelhi":12868,"Ġbusy":12869,"Ġrealize":12870,"Ġrealizes":12871,"raction":12872,"Ġcalendar":12873,"Ġcurren":12874,"Ġpolitician":12875,"opsis":12876,"boards":12877,"Ġhalfway":12878,"Ġmoderately":12879,"Ġmembership":12880,"Ġwald":12881,"Ġfreely":12882,"Ġgrande":12883,"Ġ243":12884,"Ġaffir":12885,"rington":12886,"Ġfaction":12887,"Ġmassa":12888,"Ġcouples":12889,"Ġwoodward":12890,"Ġwoodfull":12891,"Ġintroducing":12892,"Ġbrownish":12893,"Ġdevices":12894,"Ġodd":12895,"Ġolive":12896,"Ġcircles":12897,"Ġfavoured":12898,"Ġ1855":12899,"Ġflightless":12900,"Ġjewels":12901,"Ġrulers":12902,"Ġcaa":12903,"Ġhardy":12904,"Ġ1886":12905,"Ġexcited":12906,"Ġmeri":12907,"Ġmerge":12908,"Ġmercedes":12909,"marcach":12910,"nesday":12911,"Ġbigger":12912,"Ġprivile":12913,"Ġrevealing":12914,"Ġruined":12915,"Ġemployee":12916,"Ġcommercials":12917,"Ġsurfaces":12918,"Ġstepped":12919,"Ġphysic":12920,"Ġsynopsis":12921,"Ġintensify":12922,"Ġsemaph":12923,"Ġzealanders":12924,"Ġ1842":12925,"Ġdarker":12926,"Ġlayout":12927,"Ġimmense":12928,"Ġwitches":12929,"Ġcomplaints":12930,"Ġastrae":12931,"Ġrequests":12932,"Ġinvestigating":12933,"Ġrowson":12934,"Ġarchitects":12935,"Ġprinceton":12936,"Ġcrowned":12937,"Ġinteractive":12938,"Ġessays":12939,"Ġramon":12940,"Ġowl":12941,"Ġnationally":12942,"Ġprominently":12943,"Ġbassline":12944,"Ġnecessarily":12945,"Ġrearguard":12946,"Ġ1820":12947,"Ġclimax":12948,"Ġprotector":12949,"Ġprotective":12950,"Ġdresses":12951,"Ġstruggling":12952,"Ġconsec":12953,"Ġfairy":12954,"Ġfarmland":12955,"Ġwednesday":12956,"Ġdogs":12957,"Ġrequirement":12958,"Ġchoral":12959,"Ġflags":12960,"Ġeager":12961,"Ġcleaning":12962,"Ġmolecule":12963,"Ġinduction":12964,"Ġresembles":12965,"Ġmushrooms":12966,"Ġvirtue":12967,"Ġstockhol":12968,"Ġbruges":12969,"Ġexpeditionary":12970,"Ġguybrush":12971,"Ġroofs":12972,"Ġprices":12973,"Ġorchestral":12974,"huveer":12975,"Ġlitter":12976,"Ġhangzhou":12977,"Ġexplosion":12978,"Ġpapers":12979,"Ġdisciples":12980,"Ġvarying":12981,"Ġvoyager":12982,"Ġwyatt":12983,"Ġechmarcach":12984,"Ġmycel":12985,"Ġornament":12986,"Ġscrapped":12987,"Ġescorted":12988,"Ġpaved":12989,"Ġcobain":12990,"Ġceratopsians":12991,"Ġharmony":12992,"Ġsulfide":12993,"Ġlimitations":12994,"Ġnovak":12995,"Ġtongue":12996,"Ġfingers":12997,"Ġteenage":12998,"Ġabsolutely":12999,"Ġprefectures":13000,"Ġsponsorship":13001,"Ġkidn":13002,"Ġantiquity":13003,"Ġantiquities":13004,"Ġmcluhan":13005,"osomes":13006,"Ġtackles":13007,"Ġludlow":13008,"Ġraghuveer":13009,"Ġstrictly":13010,"Ġneighbouring":13011,"Ġinferior":13012,"Ġahk":13013,"Ġfossils":13014,"Ġbrutal":13015,"Ġdiagnosed":13016,"Ġadvocate":13017,"Ġconfrontation":13018,"Ġdetermining":13019,"Ġzoe":13020,"Ġinherited":13021,"Ġriots":13022,"Ġextrater":13023,"Ġcytoplasm":13024,"Ġostend":13025,"Ġvaishn":13026,"Ġaccumulated":13027,"Ġwarnings":13028,"Ġcarnival":13029,"Ġintegrated":13030,"Ġfulbe":13031,"Ġthakur":13032,"Ġshrubs":13033,"Ġautobiography":13034,"Ġltd":13035,"Ġtobacco":13036,"Ġeligible":13037,"Ġaccusations":13038,"Ġfusiliers":13039,"Ġsubordinate":13040,"Ġdecisive":13041,"Ġpopulace":13042,"Ġunfortunately":13043,"Ġhorizontal":13044,"Ġdancers":13045,"Ġprehistoric":13046,"Ġunpopular":13047,"Ġpseudonym":13048,"Ġsperm":13049,"Ġjavelin":13050,"Ġjtwc":13051,"Ġarbeider":13052,"Ġspontane":13053,"Ġsemaphore":13054,"Ġastraeus":13055,"Ġstockholm":13056,"20":13057,"aford":13058,"bach":13059,"bastian":13060,"care":13061,"dock":13062,"jal":13063,"jiang":13064,"nost":13065,"oct":13066,"pic":13067,"post":13068,"tiary":13069,"vi":13070,"war":13071,"zher":13072,"zog":13073,"Ġtud":13074,"Ġtended":13075,"Ġaoc":13076,"Ġaisle":13077,"Ġther":13078,"Ġtheor":13079,"Ġtheology":13080,"Ġsizes":13081,"Ġwiz":13082,"Ġcement":13083,"Ġcoss":13084,"unct":13085,"Ġbened":13086,"Ġbenson":13087,"Ġfra":13088,"Ġfond":13089,"Ġfurn":13090,"Ġfont":13091,"Ġfitz":13092,"atis":13093,"Ġinac":13094,"Ġinput":13095,"orian":13096,"Ġpud":13097,"Ġpipe":13098,"Ġmt":13099,"Ġming":13100,"Ġmck":13101,"ester":13102,"arge":13103,"Ġdiana":13104,"Ġhiv":13105,"ici":13106,"Ġling":13107,"Ġlung":13108,"Ġlamps":13109,"Ġliang":13110,"Ġnina":13111,"Ġniece":13112,"Ġgut":13113,"Ġely":13114,"ouver":13115,"stown":13116,"ami":13117,"ache":13118,"Ġstuff":13119,"Ġstumps":13120,"Ġhes":13121,"Ġhew":13122,"olese":13123,"iths":13124,"Ġras":13125,"Ġrut":13126,"Ġitunes":13127,"oting":13128,"Ġsealed":13129,"Ġsebastian":13130,"Ġdeeper":13131,"ulator":13132,"Ġchand":13133,"Ġkun":13134,"Ġkan":13135,"Ġkling":13136,"Ġvin":13137,"Ġvass":13138,"Ġvene":13139,"esthetic":13140,"empl":13141,"Ġproctor":13142,"eree":13143,"Ġneo":13144,"illon":13145,"Ġorso":13146,"Ġshan":13147,"Ġshout":13148,"Ġshops":13149,"Ġshirts":13150,"Ġexempl":13151,"Ġlease":13152,"quir":13153,"esses":13154,"Ġhaddock":13155,"Ġcox":13156,"Ġcope":13157,"Ġaft":13158,"Ġwheat":13159,"Ġherbie":13160,"Ġhermann":13161,"Ġibar":13162,"Ġamber":13163,"Ġtiming":13164,"Ġmarrow":13165,"Ġspaced":13166,"Ġspike":13167,"Ġupstream":13168,"Ġoutpost":13169,"Ġwouldn":13170,"Ġbride":13171,"Ġflanks":13172,"Ġgras":13173,"Ġblown":13174,"Ġbluff":13175,"Ġknife":13176,"Ġnorse":13177,"Ġreliance":13178,"Ġconsumed":13179,"Ġcarr":13180,"terson":13181,"Ġretiring":13182,"Ġsubmer":13183,"Ġappealed":13184,"Ġedible":13185,"Ġairplay":13186,"Ġsmart":13187,"Ġsmoking":13188,"tenham":13189,"Ġarmstr":13190,"Ġtertiary":13191,"Ġinstruction":13192,"Ġportland":13193,"Ġcritique":13194,"Ġoperator":13195,"iolet":13196,"Ġdistinction":13197,"Ġdowngraded":13198,"Ġbelo":13199,"Ġbelfast":13200,"Ġ152":13201,"Ġ153":13202,"Ġprovoked":13203,"Ġchurchill":13204,"gestion":13205,"Ġinsight":13206,"Ġinsert":13207,"Ġanna":13208,"Ġsteven":13209,"Ġsteady":13210,"Ġslate":13211,"Ġattackers":13212,"Ġcrack":13213,"Ġparticles":13214,"Ġdemons":13215,"Ġsoccer":13216,"Ġpersona":13217,"Ġdelicate":13218,"Ġloses":13219,"Ġmoray":13220,"Ġrefusing":13221,"Ġreferee":13222,"Ġheaviest":13223,"ographed":13224,"Ġlighting":13225,"Ġsentenced":13226,"Ġrealism":13227,"Ġerzher":13228,"Ġxef":13229,"Ġredoct":13230,"Ġpatch":13231,"Ġpatterson":13232,"Ġtelevised":13233,"Ġsolutions":13234,"Ġeverywhere":13235,"Ġrockstar":13236,"Ġpressing":13237,"Ġsounding":13238,"Ġcombine":13239,"Ġfleets":13240,"Ġdeclining":13241,"Ġdetached":13242,"Ġ280":13243,"Ġmasses":13244,"Ġprimitive":13245,"Ġbroadly":13246,"Ġfigg":13247,"Ġholotype":13248,"Ġbowler":13249,"Ġrails":13250,"Ġtomita":13251,"Ġtribble":13252,"Ġaccepting":13253,"Ġcongolese":13254,"Ġdominion":13255,"Ġmerger":13256,"Ġderives":13257,"Ġachieving":13258,"Ġsecretly":13259,"Ġminorities":13260,"Ġhorsepower":13261,"Ġlengthy":13262,"Ġkeyboard":13263,"Ġmcg":13264,"Ġ1879":13265,"Ġproperly":13266,"Ġdeadline":13267,"Ġ1833":13268,"Ġarabia":13269,"Ġauto":13270,"Ġsynonym":13271,"Ġdigging":13272,"Ġsenators":13273,"Ġlaying":13274,"Ġmountainous":13275,"Ġalike":13276,"Ġplatte":13277,"Ġmarketed":13278,"Ġcelebrations":13279,"Ġensuring":13280,"Ġcomplexes":13281,"Ġcontinuously":13282,"Ġpaperback":13283,"Ġprominence":13284,"Ġlinking":13285,"Ġanalyses":13286,"Ġ370":13287,"Ġprogressive":13288,"Ġactresses":13289,"Ġwears":13290,"Ġterminal":13291,"Ġheights":13292,"Ġnarrowly":13293,"Ġadmiralty":13294,"Ġorbits":13295,"Ġspectators":13296,"Ġdubious":13297,"Ġmobility":13298,"Ġvicar":13299,"Ġindex":13300,"Ġfragilis":13301,"Ġsleaford":13302,"Ġcarlisle":13303,"Ġspeaks":13304,"Ġraiden":13305,"Ġllan":13306,"Ġstockwell":13307,"otypes":13308,"Ġreconstru":13309,"Ġfirmly":13310,"Ġgrossing":13311,"market":13312,"Ġfelix":13313,"Ġphillips":13314,"Ġdecreasing":13315,"Ġsupposedly":13316,"atoes":13317,"Ġlegendary":13318,"Ġremarks":13319,"Ġ1769":13320,"Ġaffects":13321,"Ġstrategies":13322,"Ġloosely":13323,"Ġlevine":13324,"Ġtransformation":13325,"Ġrumours":13326,"Ġmycologist":13327,"Ġtiger":13328,"Ġdisplacement":13329,"Ġfloors":13330,"Ġnova":13331,"Ġinstructions":13332,"Ġbuckingham":13333,"Ġpsychological":13334,"Ġavoiding":13335,"Ġexcessive":13336,"Ġoutfit":13337,"Ġabolition":13338,"Ġanchor":13339,"Ġtrunkline":13340,"Ġfolded":13341,"Ġquantities":13342,"Ġbacter":13343,"Ġevaluation":13344,"Ġceremonies":13345,"Ġhubbard":13346,"Ġdetermination":13347,"Ġmegaliths":13348,"Ġgentleman":13349,"Ġdorothy":13350,"Ġaccelerated":13351,"Ġmotifs":13352,"Ġmonitoring":13353,"Ġoutdoor":13354,"Ġguarant":13355,"Ġcolombia":13356,"Ġhypothesis":13357,"Ġeliot":13358,"Ġrelaxed":13359,"Ġdorsal":13360,"Ġkubica":13361,"Ġlemon":13362,"Ġmedicine":13363,"Ġgalaxy":13364,"Ġdictionary":13365,"Ġexplanation":13366,"Ġdiane":13367,"Ġhoysala":13368,"Ġodyssey":13369,"Ġbermuda":13370,"Ġacquisition":13371,"Ġrehabil":13372,"Ġnottingham":13373,"Ġpercussion":13374,"nostic":13375,"Ġtudor":13376,"Ġbenedict":13377,"Ġorsogna":13378,"Ġsubmerged":13379,"Ġarmstrong":13380,"Ġerzherzog":13381,"Ġredoctane":13382,"augh":13383,"bone":13384,"cs":13385,"col":13386,"ections":13387,"hand":13388,"hatt":13389,"lon":13390,"nut":13391,"pon":13392,"pus":13393,"rav":13394,"rained":13395,"Ġtat":13396,"Ġtier":13397,"held":13398,"inary":13399,"inburgh":13400,"Ġsends":13401,"Ġwart":13402,"Ġwally":13403,"onz":13404,"Ġfuse":13405,"enary":13406,"Ġanfield":13407,"Ġpas":13408,"Ġporn":13409,"Ġmould":13410,"Ġmouse":13411,"Ġmumb":13412,"esy":13413,"arthur":13414,"Ġdome":13415,"Ġdread":13416,"Ġdimin":13417,"Ġhbo":13418,"Ġtoss":13419,"Ġtoys":13420,"Ġlighth":13421,"Ġnos":13422,"Ġnail":13423,"Ġngu":13424,"Ġreed":13425,"Ġreinc":13426,"Ġrebound":13427,"Ġgb":13428,"Ġgaz":13429,"Ġgonna":13430,"Ġgaga":13431,"stage":13432,"Ġbeast":13433,"Ġbeeth":13434,"acular":13435,"Ġstamp":13436,"urbs":13437,"Ġforaging":13438,"ima":13439,"immer":13440,"idia":13441,"than":13442,"Ġalonso":13443,"Ġalesund":13444,"Ġrip":13445,"Ġisa":13446,"Ġwhist":13447,"Ġdeton":13448,"etics":13449,"ulip":13450,"Ġchas":13451,"Ġkav":13452,"Ġkarn":13453,"andis":13454,"osion":13455,"ums":13456,"Ġproc":13457,"Ġprow":13458,"ifact":13459,"Ġsuite":13460,"Ġyoko":13461,"apur":13462,"apata":13463,"Ġshapur":13464,"arten":13465,"abase":13466,"antine":13467,"Ġenhan":13468,"Ġnoticed":13469,"Ġnotorious":13470,"asted":13471,"ineae":13472,"Ġcompares":13473,"isham":13474,"Ġbutetown":13475,"Ġworried":13476,"Ġherds":13477,"Ġscouts":13478,"Ġabst":13479,"Ġabus":13480,"Ġmann":13481,"Ġmanhatt":13482,"Ġix":13483,"Ġamanda":13484,"Ġnewer":13485,"Ġnewman":13486,"okan":13487,"Ġnoel":13488,"owned":13489,"Ġspill":13490,"Ġmeyers":13491,"Ġdisrupted":13492,"Ġweird":13493,"tebr":13494,"Ġintercourse":13495,"aceae":13496,"renched":13497,"cesters":13498,"Ġbruss":13499,"Ġflocks":13500,"Ġgrants":13501,"Ġgrisham":13502,"Ġblond":13503,"Ġmaybe":13504,"Ġwarner":13505,"Ġverme":13506,"Ġunderwater":13507,"Ġcaravan":13508,"Ġempl":13509,"Ġemily":13510,"Ġlarv":13511,"Ġlarwood":13512,"Ġsyll":13513,"Ġdole":13514,"Ġretaining":13515,"Ġworlds":13516,"Ġsuburbs":13517,"Ġincumb":13518,"Ġlocals":13519,"Ġguilt":13520,"Ġcapab":13521,"ificate":13522,"Ġfounders":13523,"Ġedinburgh":13524,"Ġairsp":13525,"Ġrevis":13526,"Ġpopmat":13527,"Ġartifact":13528,"Ġperformer":13529,"Ġzapata":13530,"Ġinvention":13531,"lioz":13532,"Ġcritically":13533,"Ġshipbu":13534,"Ġstrings":13535,"Ġchurchyard":13536,"Ġdesigning":13537,"Ġbarbour":13538,"Ġmissile":13539,"Ġsteals":13540,"Ġcolleges":13541,"enna":13542,"Ġclassics":13543,"Ġcrashed":13544,"Ġfurious":13545,"Ġpromising":13546,"Ġmiddles":13547,"Ġlasts":13548,"Ġtrivial":13549,"Ġgovernmental":13550,"Ġcourty":13551,"Ġirres":13552,"Ġglorious":13553,"hentic":13554,"Ġmorale":13555,"Ġmoravia":13556,"Ġcommunal":13557,"Ġdrag":13558,"Ġswan":13559,"Ġhandful":13560,"Ġerik":13561,"Ġerosion":13562,"Ġsolved":13563,"Ġeffectiveness":13564,"Ġpolitically":13565,"Ġreferenced":13566,"Ġneversoft":13567,"Ġcastles":13568,"Ġposthum":13569,"Ġpostseason":13570,"Ġsuperv":13571,"Ġfreestyle":13572,"engu":13573,"Ġangular":13574,"Ġangels":13575,"Ġtotaled":13576,"Ġwalked":13577,"Ġdefeats":13578,"Ġwatches":13579,"Ġrichie":13580,"Ġmassacre":13581,"Ġoccurrence":13582,"Ġceo":13583,"Ġdoug":13584,"Ġcivic":13585,"Ġ275":13586,"Ġputs":13587,"Ġvirus":13588,"Ġdevised":13589,"Ġpromoting":13590,"Ġspecialist":13591,"Ġbias":13592,"Ġlyn":13593,"Ġlycoming":13594,"Ġindependently":13595,"Ġforested":13596,"Ġprocesses":13597,"Ġpenis":13598,"Ġbayeu":13599,"Ġcircus":13600,"Ġberlioz":13601,"Ġ1884":13602,"Ġbusinessman":13603,"Ġmerit":13604,"Ġtalented":13605,"Ġobserves":13606,"Ġreasonable":13607,"Ġmacarthur":13608,"Ġcomeback":13609,"Ġrenowned":13610,"Ġaccounted":13611,"Ġavailability":13612,"Ġkilogram":13613,"Ġtheatres":13614,"Ġhappens":13615,"Ġhappiness":13616,"Ġgarth":13617,"Ġ1831":13618,"Ġ1834":13619,"Ġslowed":13620,"Ġauthentic":13621,"Ġnaturalist":13622,"Ġabsent":13623,"Ġbroadcasts":13624,"Ġjeremi":13625,"Ġqin":13626,"Ġcomplaint":13627,"Ġcorners":13628,"Ġemerging":13629,"Ġferal":13630,"Ġmeantime":13631,"Ġvoting":13632,"Ġscreening":13633,"Ġrowland":13634,"Ġ320":13635,"Ġaccompany":13636,"Ġportraying":13637,"Ġawa":13638,"Ġmissionary":13639,"Ġenjoyable":13640,"Ġnecessity":13641,"Ġ1821":13642,"Ġexpressing":13643,"Ġreformation":13644,"Ġtonight":13645,"Ġcertificate":13646,"Ġstruggles":13647,"Ġshrines":13648,"Ġprogresses":13649,"Ġsustain":13650,"Ġ480":13651,
[...]
